/*
 * Copyright (c) 2025 EdgeImpulse Inc.
 *
 * Generated by Edge Impulse and licensed under the applicable Edge Impulse
 * Terms of Service. Community and Professional Terms of Service
 * (https://edgeimpulse.com/legal/terms-of-service) or Enterprise Terms of
 * Service (https://edgeimpulse.com/legal/enterprise-terms-of-service),
 * according to your product plan subscription (the “License”).
 *
 * This software, documentation and other associated files (collectively referred
 * to as the “Software”) is a single SDK variation generated by the Edge Impulse
 * platform and requires an active paid Edge Impulse subscription to use this
 * Software for any purpose.
 *
 * You may NOT use this Software unless you have an active Edge Impulse subscription
 * that meets the eligibility requirements for the applicable License, subject to
 * your full and continued compliance with the terms and conditions of the License,
 * including without limitation any usage restrictions under the applicable License.
 *
 * If you do not have an active Edge Impulse product plan subscription, or if use
 * of this Software exceeds the usage limitations of your Edge Impulse product plan
 * subscription, you are not permitted to use this Software and must immediately
 * delete and erase all copies of this Software within your control or possession.
 * Edge Impulse reserves all rights and remedies available to enforce its rights.
 *
 * Unless required by applicable law or agreed to in writing, the Software is
 * distributed on an "AS IS" BASIS, WITHOUT WARRANTIES OR CONDITIONS OF ANY KIND,
 * either express or implied. See the License for the specific language governing
 * permissions, disclaimers and limitations under the License.
 */

#ifndef _EI_CLASSIFIER_TFLITE_LEARN_770185_4_H_
#define _EI_CLASSIFIER_TFLITE_LEARN_770185_4_H_

#define EI_CLASSIFIER_TFLITE_LEARN_770185_4_ARENA_SIZE     19014
const size_t tflite_learn_770185_4_arena_size = 19014;

#if defined __GNUC__
#define ALIGN(X) __attribute__((aligned(X)))
#elif defined _MSC_VER
#define ALIGN(X) __declspec(align(X))
#elif defined __TASKING__
#define ALIGN(X) __align(X)
#else
#define ALIGN(X)
#endif

#if defined(EI_MODEL_SECTION) && (defined(__GNUC__) || defined(__clang__))
#define STRINGIZE(x) #x
#define STRINGIZE_VALUE_OF(x) STRINGIZE(x)
#define MODEL_SECTION(X) __attribute__((section(STRINGIZE_VALUE_OF(X))))
#else
#define MODEL_SECTION(X)
#endif


MODEL_SECTION(EI_MODEL_SECTION) ALIGN(16) const unsigned char tflite_learn_770185_4[] = {
  0x1c, 0x00, 0x00, 0x00, 0x54, 0x46, 0x4c, 0x33, 0x14, 0x00, 0x20, 0x00,
  0x1c, 0x00, 0x18, 0x00, 0x14, 0x00, 0x10, 0x00, 0x0c, 0x00, 0x00, 0x00,
  0x08, 0x00, 0x04, 0x00, 0x14, 0x00, 0x00, 0x00, 0x1c, 0x00, 0x00, 0x00,
  0x8c, 0x00, 0x00, 0x00, 0xe4, 0x00, 0x00, 0x00, 0x34, 0x0d, 0x00, 0x00,
  0x44, 0x0d, 0x00, 0x00, 0x50, 0x1d, 0x00, 0x00, 0x03, 0x00, 0x00, 0x00,
  0x01, 0x00, 0x00, 0x00, 0x10, 0x00, 0x00, 0x00, 0x00, 0x00, 0x0a, 0x00,
  0x10, 0x00, 0x0c, 0x00, 0x08, 0x00, 0x04, 0x00, 0x0a, 0x00, 0x00, 0x00,
  0x0c, 0x00, 0x00, 0x00, 0x1c, 0x00, 0x00, 0x00, 0x3c, 0x00, 0x00, 0x00,
  0x0f, 0x00, 0x00, 0x00, 0x73, 0x65, 0x72, 0x76, 0x69, 0x6e, 0x67, 0x5f,
  0x64, 0x65, 0x66, 0x61, 0x75, 0x6c, 0x74, 0x00, 0x01, 0x00, 0x00, 0x00,
  0x04, 0x00, 0x00, 0x00, 0x9c, 0xff, 0xff, 0xff, 0x16, 0x00, 0x00, 0x00,
  0x04, 0x00, 0x00, 0x00, 0x08, 0x00, 0x00, 0x00, 0x6f, 0x75, 0x74, 0x70,
  0x75, 0x74, 0x5f, 0x30, 0x00, 0x00, 0x00, 0x00, 0x01, 0x00, 0x00, 0x00,
  0x04, 0x00, 0x00, 0x00, 0xa6, 0xf2, 0xff, 0xff, 0x04, 0x00, 0x00, 0x00,
  0x01, 0x00, 0x00, 0x00, 0x78, 0x00, 0x00, 0x00, 0x02, 0x00, 0x00, 0x00,
  0x34, 0x00, 0x00, 0x00, 0x04, 0x00, 0x00, 0x00, 0xdc, 0xff, 0xff, 0xff,
  0x19, 0x00, 0x00, 0x00, 0x04, 0x00, 0x00, 0x00, 0x13, 0x00, 0x00, 0x00,
  0x43, 0x4f, 0x4e, 0x56, 0x45, 0x52, 0x53, 0x49, 0x4f, 0x4e, 0x5f, 0x4d,
  0x45, 0x54, 0x41, 0x44, 0x41, 0x54, 0x41, 0x00, 0x08, 0x00, 0x0c, 0x00,
  0x08, 0x00, 0x04, 0x00, 0x08, 0x00, 0x00, 0x00, 0x18, 0x00, 0x00, 0x00,
  0x04, 0x00, 0x00, 0x00, 0x13, 0x00, 0x00, 0x00, 0x6d, 0x69, 0x6e, 0x5f,
  0x72, 0x75, 0x6e, 0x74, 0x69, 0x6d, 0x65, 0x5f, 0x76, 0x65, 0x72, 0x73,
  0x69, 0x6f, 0x6e, 0x00, 0x1a, 0x00, 0x00, 0x00, 0x4c, 0x0c, 0x00, 0x00,
  0x44, 0x0c, 0x00, 0x00, 0x24, 0x0c, 0x00, 0x00, 0x04, 0x0c, 0x00, 0x00,
  0xe4, 0x0b, 0x00, 0x00, 0xc4, 0x0b, 0x00, 0x00, 0xac, 0x0b, 0x00, 0x00,
  0x94, 0x0b, 0x00, 0x00, 0xc4, 0x06, 0x00, 0x00, 0x74, 0x06, 0x00, 0x00,
  0xe4, 0x04, 0x00, 0x00, 0xb4, 0x04, 0x00, 0x00, 0xe4, 0x00, 0x00, 0x00,
  0xdc, 0x00, 0x00, 0x00, 0xd4, 0x00, 0x00, 0x00, 0xcc, 0x00, 0x00, 0x00,
  0xc4, 0x00, 0x00, 0x00, 0xbc, 0x00, 0x00, 0x00, 0xb4, 0x00, 0x00, 0x00,
  0xac, 0x00, 0x00, 0x00, 0xa4, 0x00, 0x00, 0x00, 0x9c, 0x00, 0x00, 0x00,
  0x94, 0x00, 0x00, 0x00, 0x8c, 0x00, 0x00, 0x00, 0x6c, 0x00, 0x00, 0x00,
  0x04, 0x00, 0x00, 0x00, 0x7e, 0xf3, 0xff, 0xff, 0x04, 0x00, 0x00, 0x00,
  0x58, 0x00, 0x00, 0x00, 0x0c, 0x00, 0x00, 0x00, 0x08, 0x00, 0x0e, 0x00,
  0x08, 0x00, 0x04, 0x00, 0x08, 0x00, 0x00, 0x00, 0x10, 0x00, 0x00, 0x00,
  0x28, 0x00, 0x00, 0x00, 0x00, 0x00, 0x06, 0x00, 0x08, 0x00, 0x04, 0x00,
  0x06, 0x00, 0x00, 0x00, 0x04, 0x00, 0x00, 0x00, 0x01, 0x00, 0x00, 0x00,
  0xeb, 0x03, 0x00, 0x00, 0x00, 0x00, 0x0a, 0x00, 0x10, 0x00, 0x0c, 0x00,
  0x08, 0x00, 0x04, 0x00, 0x0a, 0x00, 0x00, 0x00, 0x03, 0x00, 0x00, 0x00,
  0x02, 0x00, 0x00, 0x00, 0x04, 0x00, 0x00, 0x00, 0x06, 0x00, 0x00, 0x00,
  0x32, 0x2e, 0x31, 0x31, 0x2e, 0x31, 0x00, 0x00, 0xe2, 0xf3, 0xff, 0xff,
  0x04, 0x00, 0x00, 0x00, 0x10, 0x00, 0x00, 0x00, 0x31, 0x2e, 0x31, 0x34,
  0x2e, 0x30, 0x00, 0x00, 0x00, 0x00, 0x00, 0x00, 0x00, 0x00, 0x00, 0x00,
  0x30, 0xe5, 0xff, 0xff, 0x34, 0xe5, 0xff, 0xff, 0x38, 0xe5, 0xff, 0xff,
  0x3c, 0xe5, 0xff, 0xff, 0x40, 0xe5, 0xff, 0xff, 0x44, 0xe5, 0xff, 0xff,
  0x48, 0xe5, 0xff, 0xff, 0x4c, 0xe5, 0xff, 0xff, 0x50, 0xe5, 0xff, 0xff,
  0x54, 0xe5, 0xff, 0xff, 0x58, 0xe5, 0xff, 0xff, 0x2a, 0xf4, 0xff, 0xff,
  0x04, 0x00, 0x00, 0x00, 0xc0, 0x03, 0x00, 0x00, 0xde, 0x0d, 0xdb, 0xd9,
  0x81, 0xcd, 0xf9, 0xc3, 0xaf, 0xb6, 0xfe, 0xa1, 0x0b, 0xc1, 0xb2, 0xfe,
  0x1d, 0x25, 0x25, 0xde, 0x41, 0x2d, 0x22, 0x11, 0x1a, 0x01, 0xf2, 0xa8,
  0xf6, 0xa3, 0xa5, 0x16, 0x14, 0xda, 0x1f, 0xe7, 0x0c, 0xf9, 0x47, 0x65,
  0xfb, 0xfb, 0x9b, 0xff, 0xb1, 0xac, 0x17, 0x02, 0xdd, 0xc5, 0x26, 0x1a,
  0x94, 0x30, 0x09, 0x1e, 0x66, 0x52, 0x22, 0x56, 0xec, 0x60, 0x23, 0xe3,
  0xd9, 0xdf, 0x2a, 0xdd, 0x18, 0xc6, 0xb4, 0x2e, 0xd4, 0xbe, 0xe4, 0x0d,
  0x2b, 0x2c, 0xee, 0x3d, 0x07, 0xdf, 0x07, 0x9c, 0x08, 0x96, 0x97, 0xd1,
  0xc4, 0x0f, 0xd6, 0xaf, 0xed, 0xbd, 0xcb, 0xe1, 0x02, 0x1d, 0x5c, 0x01,
  0x53, 0x0f, 0x09, 0x03, 0xfc, 0xc7, 0xb8, 0x05, 0xd7, 0xd0, 0xb3, 0xb7,
  0xfe, 0xd9, 0xea, 0xee, 0xf2, 0x4f, 0x4b, 0x59, 0x8a, 0xa1, 0xe4, 0x4f,
  0x83, 0x4a, 0x9b, 0x64, 0xea, 0xfe, 0xd6, 0x9f, 0x43, 0x8b, 0x76, 0x28,
  0x88, 0xcc, 0x72, 0x67, 0x24, 0xac, 0x17, 0x0c, 0x12, 0xa5, 0x91, 0xce,
  0xcb, 0x0e, 0x04, 0x85, 0xd2, 0x43, 0x22, 0x3f, 0xa5, 0xa3, 0xf8, 0xa5,
  0x5b, 0xf1, 0xa6, 0x14, 0xd8, 0x68, 0x45, 0x69, 0x0d, 0xce, 0xe8, 0xc6,
  0x29, 0x86, 0x9f, 0x50, 0x0f, 0x9f, 0xb9, 0xcb, 0x30, 0x6a, 0xa7, 0xd1,
  0x85, 0xe8, 0x02, 0xb8, 0xe5, 0x57, 0xd5, 0xf8, 0xf2, 0x76, 0x04, 0xe2,
  0xbf, 0xe5, 0xea, 0x81, 0x69, 0x99, 0xfd, 0xaf, 0x85, 0x49, 0x44, 0xfc,
  0xa2, 0x23, 0xa5, 0x5b, 0x6c, 0xbb, 0xf5, 0x25, 0xec, 0x56, 0x5e, 0xcc,
  0xc1, 0x10, 0x81, 0x2b, 0x3e, 0x7a, 0xc2, 0x74, 0xda, 0x9b, 0x3f, 0xd0,
  0x26, 0x86, 0xbe, 0x51, 0x47, 0x06, 0xae, 0x41, 0x18, 0x33, 0x8c, 0xbb,
  0x8c, 0x96, 0xf0, 0x05, 0xac, 0xe6, 0x0e, 0xa0, 0xf9, 0xab, 0xc6, 0x28,
  0x67, 0x09, 0x73, 0x47, 0x76, 0x2b, 0x04, 0xf6, 0x15, 0xc0, 0xb2, 0xaa,
  0xed, 0xb1, 0xbe, 0x0c, 0xd4, 0x31, 0x4c, 0xd6, 0x32, 0xe1, 0x28, 0x2c,
  0x03, 0xdd, 0xde, 0xb0, 0xdb, 0xdd, 0xe8, 0xb2, 0x17, 0xa0, 0x38, 0x97,
  0xa7, 0x0e, 0x3c, 0x10, 0xea, 0x18, 0x6a, 0x62, 0x31, 0x71, 0xe7, 0xe1,
  0xc2, 0x43, 0xcb, 0xea, 0xa3, 0xb4, 0xcb, 0x29, 0xc9, 0x15, 0xef, 0xe0,
  0xb8, 0x3b, 0xda, 0x19, 0x10, 0xa8, 0xa8, 0xc2, 0xf5, 0xbe, 0x19, 0x20,
  0x05, 0x8e, 0x8c, 0xb3, 0xda, 0x11, 0xf8, 0x05, 0xe8, 0xfa, 0x7f, 0xd4,
  0x47, 0x48, 0xd0, 0xf9, 0x2e, 0xa4, 0xf1, 0xb6, 0xe6, 0x26, 0x15, 0xd9,
  0x13, 0xbc, 0x38, 0xe5, 0x1d, 0x73, 0x04, 0x16, 0xa0, 0xd7, 0xdb, 0x81,
  0x22, 0xa5, 0x24, 0xdb, 0x22, 0x82, 0xd9, 0x9b, 0xcc, 0x05, 0xff, 0xe0,
  0x65, 0x2e, 0x31, 0x13, 0x2e, 0x47, 0x3c, 0x37, 0x10, 0x3b, 0x36, 0xa1,
  0x3d, 0x0a, 0x13, 0x24, 0x34, 0x13, 0x1d, 0x1c, 0xd7, 0x04, 0xb7, 0x5a,
  0x9f, 0xbd, 0xdb, 0xab, 0xfd, 0xf4, 0x27, 0xa8, 0x2a, 0x0b, 0xa6, 0xca,
  0xb9, 0xb1, 0x31, 0xb0, 0x66, 0x5d, 0x0d, 0x2f, 0x3b, 0x1f, 0xf4, 0x40,
  0xf1, 0xb2, 0x1f, 0xaa, 0xfb, 0xc4, 0x32, 0x43, 0x14, 0xe1, 0xc1, 0xca,
  0xed, 0xc2, 0x5e, 0xf3, 0x31, 0xe5, 0x29, 0x8b, 0x07, 0x0e, 0xee, 0xe2,
  0x8a, 0xeb, 0x3e, 0xa6, 0x8d, 0x0a, 0x9d, 0xfc, 0x2e, 0x21, 0xf5, 0x5a,
  0xbd, 0x2f, 0xbf, 0x07, 0xc5, 0xf1, 0x34, 0xfd, 0x38, 0xa5, 0x3d, 0xb9,
  0xf2, 0xe4, 0xba, 0xeb, 0x06, 0xa4, 0xb7, 0xf7, 0x4f, 0xd2, 0xf1, 0x7f,
  0xaa, 0x19, 0x09, 0x56, 0xed, 0x03, 0x9c, 0x2e, 0x2a, 0x32, 0xe7, 0x5a,
  0xca, 0xc8, 0xcf, 0xc2, 0xde, 0xb3, 0xb3, 0xe8, 0xa5, 0xec, 0xdd, 0x2c,
  0x3c, 0xdd, 0xb0, 0x0d, 0xb1, 0xd1, 0x2b, 0xbc, 0xd2, 0x3e, 0xc1, 0x12,
  0x3e, 0x08, 0x4c, 0xf3, 0xc4, 0x04, 0x59, 0xd0, 0x0d, 0xe2, 0xec, 0x30,
  0xe8, 0x3a, 0xcb, 0xf9, 0xcb, 0x09, 0x2c, 0xe3, 0xe3, 0x3b, 0x50, 0x44,
  0xec, 0x50, 0x02, 0xd3, 0xff, 0x51, 0x98, 0x56, 0x9f, 0xa7, 0x4b, 0x2f,
  0xc5, 0x0c, 0x9c, 0xf6, 0x64, 0xaa, 0xb6, 0x1a, 0xbe, 0xe8, 0x4e, 0x32,
  0xe9, 0xce, 0xd8, 0x4e, 0x3e, 0x43, 0x9a, 0x21, 0xb9, 0xc0, 0x0e, 0xff,
  0x01, 0xe6, 0xf0, 0xce, 0x04, 0xa3, 0x93, 0xd4, 0xd7, 0x3c, 0x30, 0x9d,
  0x54, 0x1a, 0xaf, 0x4d, 0x4a, 0x43, 0xee, 0xa0, 0xd1, 0x0f, 0xf1, 0x18,
  0x20, 0x01, 0xbe, 0x11, 0xff, 0x59, 0xde, 0x73, 0x19, 0x41, 0xe4, 0x17,
  0x8e, 0x12, 0xf8, 0x5d, 0xd1, 0xf0, 0x6b, 0x81, 0xe3, 0x92, 0x14, 0x31,
  0xb1, 0x67, 0x86, 0x61, 0x18, 0xe0, 0x51, 0x0f, 0xe2, 0xbc, 0x5b, 0xde,
  0x98, 0x81, 0x25, 0x2c, 0x09, 0xcf, 0x9f, 0xc3, 0xbf, 0xc0, 0xaa, 0xa7,
  0xfb, 0x49, 0xcb, 0xf9, 0xeb, 0xd7, 0x5e, 0x65, 0x4d, 0xc5, 0x36, 0x4d,
  0xa5, 0x26, 0xbb, 0x53, 0x1d, 0x1b, 0xbc, 0xe0, 0xa9, 0x2f, 0xbb, 0xe4,
  0x1d, 0x67, 0xe1, 0xa6, 0x4d, 0x95, 0x56, 0xd2, 0xf8, 0x0d, 0xd4, 0xd6,
  0x11, 0x63, 0x37, 0x27, 0xe6, 0x40, 0xb8, 0x2a, 0x49, 0xb2, 0xf6, 0x89,
  0x40, 0x5e, 0xb5, 0x33, 0xe0, 0xb4, 0x66, 0x4d, 0x12, 0xd0, 0x09, 0x5c,
  0xe2, 0x84, 0xb1, 0x9e, 0xf3, 0xad, 0x34, 0x6f, 0x0d, 0x28, 0xed, 0xee,
  0xda, 0xce, 0xb6, 0xd3, 0xc5, 0x9d, 0xd1, 0xdc, 0xab, 0xed, 0x00, 0xdd,
  0x1a, 0x72, 0x2f, 0x14, 0xf0, 0x30, 0xfd, 0xf9, 0xdf, 0xfa, 0x35, 0xea,
  0xdf, 0xc2, 0xd8, 0xb7, 0x3b, 0xc4, 0xcd, 0x14, 0xb8, 0x43, 0xfa, 0x1f,
  0x39, 0xdd, 0x16, 0xd5, 0xd5, 0x43, 0x08, 0x16, 0x14, 0x0c, 0xd1, 0x0d,
  0x95, 0x26, 0x24, 0xdc, 0x1e, 0x08, 0x5d, 0x5f, 0xf8, 0xed, 0x02, 0xd8,
  0xb8, 0x44, 0xea, 0x06, 0xc1, 0xd3, 0x14, 0x21, 0xdf, 0x16, 0xbe, 0x26,
  0x45, 0x3e, 0xec, 0x21, 0x2c, 0xf7, 0xb7, 0xc3, 0x9f, 0xe5, 0xbf, 0xd7,
  0x24, 0x03, 0xbc, 0xb1, 0xc8, 0xd8, 0xcb, 0xbf, 0x7f, 0x1b, 0x47, 0x1e,
  0x28, 0x02, 0x42, 0xe4, 0x02, 0xfb, 0xb7, 0xe1, 0xcd, 0x1a, 0xcd, 0xed,
  0x10, 0x1d, 0xea, 0x40, 0xe1, 0xd5, 0xe0, 0x53, 0x30, 0xed, 0x16, 0x02,
  0x23, 0xfb, 0xa4, 0x1c, 0xcc, 0xba, 0x3b, 0x97, 0x17, 0xa0, 0xc7, 0x05,
  0x11, 0x7f, 0x04, 0x14, 0xf9, 0x39, 0xb9, 0xd7, 0x2d, 0xe1, 0xea, 0x2e,
  0x34, 0x28, 0xc5, 0xbe, 0x35, 0x42, 0xf4, 0xbc, 0x24, 0xfa, 0x41, 0xfd,
  0xd3, 0xfb, 0xba, 0xc1, 0x95, 0xa8, 0x04, 0x1f, 0xe4, 0xff, 0x36, 0x98,
  0x04, 0xe2, 0x9a, 0xbe, 0xda, 0x12, 0x2d, 0xd7, 0x00, 0x27, 0x30, 0x0e,
  0xf2, 0xda, 0xc4, 0x19, 0x0d, 0xbe, 0x93, 0xdd, 0x36, 0x15, 0x3d, 0x0c,
  0x12, 0x32, 0x07, 0x31, 0x04, 0xce, 0xbe, 0xbb, 0xab, 0xc6, 0xdc, 0xec,
  0xd0, 0x01, 0xd8, 0xda, 0x82, 0x05, 0xfe, 0x28, 0x33, 0x67, 0x52, 0x09,
  0xfd, 0x41, 0x30, 0x22, 0xa6, 0x44, 0xfe, 0x22, 0xca, 0x0d, 0x00, 0x24,
  0xae, 0xd0, 0xa9, 0x04, 0x9f, 0xc7, 0x38, 0x38, 0xf6, 0xf7, 0xff, 0xff,
  0x04, 0x00, 0x00, 0x00, 0x20, 0x00, 0x00, 0x00, 0x39, 0xfe, 0xff, 0xff,
  0xf8, 0xf4, 0xff, 0xff, 0xdd, 0xfb, 0xff, 0xff, 0x67, 0xeb, 0xff, 0xff,
  0x30, 0xeb, 0xff, 0xff, 0x98, 0xd9, 0xff, 0xff, 0x55, 0xff, 0xff, 0xff,
  0x27, 0xf8, 0xff, 0xff, 0x22, 0xf8, 0xff, 0xff, 0x04, 0x00, 0x00, 0x00,
  0x80, 0x01, 0x00, 0x00, 0x50, 0x2d, 0x7f, 0x4e, 0xec, 0xfd, 0x3f, 0x3e,
  0x2d, 0x1c, 0x2f, 0xfb, 0xbe, 0x10, 0x78, 0xb8, 0x49, 0x31, 0x3e, 0x26,
  0xb8, 0xdb, 0x71, 0x1f, 0x00, 0x41, 0x19, 0x4c, 0xef, 0xab, 0x26, 0x39,
  0xf2, 0xdc, 0xf1, 0x12, 0x30, 0x52, 0x6b, 0x6a, 0x7f, 0x07, 0x3e, 0xb0,
  0xd0, 0xbe, 0x3e, 0x0b, 0x1c, 0x20, 0x09, 0x0e, 0xf9, 0xde, 0x4c, 0x39,
  0x7f, 0xfe, 0x73, 0x38, 0x21, 0xb5, 0x38, 0x5d, 0xdd, 0x2a, 0x53, 0xcb,
  0xe0, 0x04, 0x7e, 0x06, 0x64, 0xd4, 0x67, 0xe9, 0x55, 0xf2, 0xfe, 0x40,
  0x40, 0xc4, 0x24, 0x4e, 0x0f, 0xd1, 0x0e, 0x29, 0xed, 0x0c, 0x0c, 0xe5,
  0x2c, 0xeb, 0x7f, 0x39, 0x21, 0xd2, 0x16, 0xf3, 0xab, 0xbc, 0x63, 0x40,
  0xfe, 0xf3, 0x2f, 0xf4, 0xe7, 0x31, 0x6a, 0x1e, 0x60, 0x42, 0x7f, 0x03,
  0xb9, 0x52, 0x3b, 0x3a, 0xdb, 0x4e, 0x78, 0x52, 0xde, 0x81, 0x1d, 0x7d,
  0xd9, 0x3f, 0x0b, 0xd6, 0x56, 0x55, 0xe9, 0xea, 0xd4, 0x7a, 0x54, 0x33,
  0x07, 0x0f, 0xd7, 0x54, 0x7f, 0x07, 0x51, 0x46, 0xa5, 0xea, 0x55, 0x22,
  0x5d, 0xbb, 0x68, 0xb3, 0xe4, 0xfd, 0x55, 0x4b, 0x12, 0xa7, 0xf7, 0x52,
  0xee, 0x17, 0xf1, 0xc6, 0x16, 0x51, 0x2f, 0xa5, 0xac, 0x5a, 0x7d, 0x33,
  0x59, 0x3a, 0x70, 0x5e, 0x34, 0x42, 0x67, 0x43, 0x2f, 0xfe, 0xed, 0xf3,
  0x3d, 0x10, 0x7f, 0x2a, 0x6e, 0xa6, 0x7f, 0x4d, 0x16, 0xdd, 0x7f, 0x50,
  0x0a, 0xba, 0xd4, 0x46, 0x62, 0xe4, 0xba, 0x78, 0x1c, 0xd3, 0x7c, 0x3e,
  0x1c, 0x36, 0x18, 0x08, 0x46, 0xd7, 0x51, 0x47, 0xdc, 0x3b, 0x7f, 0x3e,
  0x16, 0xec, 0x1b, 0xdc, 0xfd, 0x2b, 0x29, 0x29, 0x1c, 0xd2, 0xfd, 0x4e,
  0xe3, 0x20, 0x1e, 0x50, 0xcf, 0xc1, 0xe4, 0x23, 0x24, 0xc9, 0x65, 0xf1,
  0xc3, 0x9e, 0x05, 0xf8, 0xdc, 0x95, 0xde, 0x23, 0xec, 0xf9, 0xed, 0x41,
  0xbf, 0x23, 0x30, 0x7f, 0xbd, 0x3b, 0xdf, 0x7d, 0x48, 0x17, 0x0f, 0xc0,
  0x0a, 0xb7, 0x57, 0x1a, 0x72, 0x81, 0x41, 0x40, 0x19, 0xfa, 0xd0, 0x5b,
  0x8f, 0x8d, 0xe2, 0xea, 0xe8, 0x2b, 0xde, 0x5c, 0xda, 0xed, 0x7f, 0xff,
  0x68, 0xee, 0xe2, 0xde, 0xaf, 0x2e, 0xef, 0xf6, 0x65, 0x2b, 0x69, 0x18,
  0x31, 0xa8, 0x05, 0x49, 0x1a, 0xf8, 0xf1, 0xda, 0xa1, 0x33, 0xe3, 0xd8,
  0x53, 0x2e, 0xfd, 0x01, 0xb4, 0xb3, 0xf4, 0xd1, 0xf0, 0x16, 0x7f, 0x02,
  0x2e, 0xce, 0xee, 0x44, 0x5a, 0x0a, 0x6b, 0xe2, 0xe7, 0x29, 0x4e, 0xd6,
  0x27, 0x59, 0x7f, 0x16, 0x00, 0xf1, 0x6f, 0xcc, 0x77, 0x9e, 0x34, 0x61,
  0x01, 0xa6, 0x47, 0xbd, 0x7f, 0x35, 0x36, 0xf5, 0x0a, 0xdd, 0x23, 0x62,
  0x43, 0xe2, 0x6e, 0x00, 0x0c, 0xc3, 0x67, 0x47, 0x07, 0xb8, 0x7d, 0xee,
  0xab, 0xf4, 0x79, 0x49, 0xae, 0xf9, 0xff, 0xff, 0x04, 0x00, 0x00, 0x00,
  0x40, 0x00, 0x00, 0x00, 0xc1, 0xf0, 0xff, 0xff, 0xa6, 0xf7, 0xff, 0xff,
  0x5a, 0xef, 0xff, 0xff, 0x0b, 0xf0, 0xff, 0xff, 0x90, 0xf2, 0xff, 0xff,
  0x20, 0xf7, 0xff, 0xff, 0xdc, 0xf0, 0xff, 0xff, 0xe0, 0xef, 0xff, 0xff,
  0x70, 0xef, 0xff, 0xff, 0x6b, 0xf1, 0xff, 0xff, 0x22, 0xfe, 0xff, 0xff,
  0x0a, 0xf2, 0xff, 0xff, 0xe1, 0xf7, 0xff, 0xff, 0x67, 0xff, 0xff, 0xff,
  0x22, 0xf3, 0xff, 0xff, 0xa2, 0xec, 0xff, 0xff, 0xfa, 0xf9, 0xff, 0xff,
  0x04, 0x00, 0x00, 0x00, 0xc0, 0x04, 0x00, 0x00, 0xea, 0xbc, 0xe9, 0xfc,
  0xf3, 0xdb, 0xcc, 0xc3, 0xeb, 0x02, 0xd4, 0xcd, 0xb5, 0xdb, 0xda, 0xb3,
  0x05, 0xf6, 0xeb, 0xca, 0xba, 0xfc, 0xdc, 0xfa, 0xd9, 0xed, 0x12, 0xf6,
  0xe8, 0xe7, 0xbd, 0xc4, 0xd4, 0x0d, 0xf0, 0xd0, 0xb1, 0xcb, 0xde, 0xfe,
  0xf4, 0x0d, 0xd1, 0x03, 0xd1, 0xe4, 0xde, 0x8c, 0xe6, 0xcc, 0xee, 0xbb,
  0xfa, 0xce, 0xf7, 0xee, 0xc5, 0xc9, 0x0b, 0xf5, 0xd5, 0xfa, 0xcf, 0xca,
  0xe6, 0xda, 0x06, 0x04, 0xcf, 0x10, 0xdd, 0x07, 0xf9, 0xef, 0xf8, 0xd6,
  0xee, 0x0d, 0xe6, 0xe6, 0xea, 0xf5, 0xd0, 0xe5, 0xdd, 0xfc, 0xe7, 0x0b,
  0x0b, 0xe2, 0xf5, 0xf5, 0x0d, 0xdc, 0xcb, 0xd5, 0xf3, 0x01, 0xf9, 0xdb,
  0xe1, 0xfc, 0xd4, 0xe6, 0xf4, 0xf4, 0xee, 0xff, 0xce, 0xe1, 0xee, 0xb1,
  0xcb, 0x1c, 0xd9, 0x0e, 0x02, 0x0b, 0xd0, 0xd3, 0xed, 0xdb, 0xfe, 0x15,
  0x19, 0xf9, 0x04, 0xcd, 0x01, 0x11, 0xd6, 0x0c, 0xc3, 0xf2, 0xf2, 0xe9,
  0xd2, 0x03, 0xfc, 0xf9, 0x18, 0x03, 0xde, 0xe6, 0xe4, 0xdc, 0xe4, 0xfb,
  0xc6, 0x15, 0xd6, 0xe8, 0xd6, 0xe4, 0xfa, 0xde, 0xfe, 0x24, 0xd4, 0xc9,
  0xc8, 0xed, 0xe7, 0xd7, 0xee, 0xea, 0x02, 0x0a, 0xfe, 0xd3, 0xe8, 0xec,
  0x15, 0x2e, 0xf0, 0xba, 0xf4, 0xc6, 0x00, 0xfa, 0xf7, 0x11, 0x05, 0x03,
  0xfb, 0xcd, 0xde, 0xd3, 0xef, 0x15, 0xd4, 0xa4, 0x0c, 0xfd, 0x00, 0xd8,
  0xc9, 0xf7, 0x0c, 0x03, 0xf0, 0xee, 0x17, 0xdc, 0x13, 0xed, 0xd3, 0xc2,
  0xd2, 0xfc, 0xeb, 0x1a, 0xa0, 0xfd, 0xed, 0xf8, 0xf2, 0xeb, 0x06, 0xe6,
  0x18, 0xf2, 0x13, 0xc4, 0x00, 0x1b, 0x13, 0xe0, 0xb5, 0xe9, 0xfd, 0xf3,
  0x11, 0xfc, 0x2b, 0xdf, 0xf9, 0x23, 0xe6, 0xf6, 0x19, 0x0d, 0x12, 0xd7,
  0xe3, 0x07, 0xef, 0xe6, 0xec, 0xff, 0x03, 0xe8, 0x00, 0x14, 0xfb, 0xdf,
  0xeb, 0x0e, 0x01, 0xe2, 0xb5, 0x1c, 0xcc, 0xe6, 0xdc, 0x0a, 0xe6, 0x19,
  0x0c, 0x08, 0x04, 0xb6, 0x0e, 0xdb, 0xfe, 0xe5, 0xdf, 0xe3, 0xfa, 0xf0,
  0xee, 0xcd, 0xda, 0x11, 0xf9, 0x20, 0x02, 0xf9, 0x14, 0x0e, 0xdc, 0xdd,
  0x14, 0xf2, 0x0a, 0x1e, 0xe2, 0x01, 0x1c, 0x17, 0xec, 0x1a, 0xe8, 0x0d,
  0xf9, 0x0a, 0x18, 0xf4, 0xd2, 0x15, 0xe8, 0xec, 0xf1, 0xe2, 0xd6, 0xe8,
  0x21, 0xe6, 0x25, 0xbe, 0xe7, 0xd9, 0x09, 0xea, 0x22, 0x0a, 0x20, 0xfd,
  0xe8, 0x03, 0xfb, 0x22, 0x0e, 0x21, 0x01, 0x16, 0xd8, 0xf5, 0x15, 0x00,
  0x1a, 0x23, 0x0e, 0xd8, 0xf5, 0x09, 0xe8, 0xe5, 0x1b, 0x35, 0x0a, 0xea,
  0x22, 0x14, 0xee, 0xdd, 0xfd, 0xe0, 0xe3, 0xe2, 0xf8, 0xf8, 0x0e, 0xd9,
  0xd9, 0x43, 0x21, 0x06, 0xfc, 0xe6, 0x09, 0x1c, 0x09, 0x28, 0xe1, 0xf5,
  0x14, 0x2a, 0x25, 0xf9, 0xff, 0xfa, 0x00, 0xe5, 0x01, 0xe4, 0xe6, 0x15,
  0xed, 0xf3, 0xe3, 0x1b, 0xd8, 0x05, 0xde, 0x16, 0xd3, 0xce, 0x09, 0x07,
  0xd4, 0x0a, 0x06, 0xdf, 0xb7, 0xfd, 0xe5, 0xff, 0xdc, 0xef, 0x20, 0x0a,
  0xff, 0xe5, 0xe0, 0xae, 0xd8, 0x16, 0xee, 0xc9, 0xee, 0xde, 0x13, 0xd8,
  0x0a, 0xf2, 0x0b, 0xe7, 0x00, 0xea, 0xe3, 0xb8, 0xd4, 0xee, 0xed, 0x0f,
  0xeb, 0xe5, 0xd5, 0xe7, 0xec, 0xff, 0xef, 0xf3, 0xfd, 0xe9, 0xdb, 0xde,
  0xfb, 0xe0, 0xf1, 0xd6, 0xb9, 0x14, 0xd4, 0x09, 0xd8, 0x10, 0x15, 0x11,
  0xe1, 0xb9, 0xcb, 0x9f, 0xd8, 0xf8, 0xf9, 0xcc, 0xd1, 0x19, 0xfc, 0xde,
  0xdd, 0x0d, 0x0a, 0xe4, 0xd3, 0xea, 0x0c, 0xec, 0x0e, 0xf4, 0x0e, 0x08,
  0xd3, 0x1d, 0x06, 0xe6, 0x00, 0xe2, 0xee, 0x00, 0xf2, 0xf6, 0x0b, 0xd0,
  0xde, 0xdc, 0x04, 0xfb, 0xc9, 0xfe, 0xf4, 0xfa, 0xd2, 0x11, 0xe5, 0xde,
  0xf1, 0xe0, 0xdb, 0xf1, 0xef, 0x1a, 0xe1, 0x10, 0x10, 0xe3, 0xec, 0xe8,
  0x09, 0x0f, 0x19, 0x16, 0xd9, 0x12, 0x0c, 0xdd, 0xe0, 0x12, 0x08, 0xd3,
  0x29, 0x0a, 0x13, 0x0e, 0x1e, 0xf8, 0x23, 0xfa, 0xf4, 0xf5, 0xfb, 0xe1,
  0x0e, 0xdf, 0xea, 0xfe, 0xe2, 0xf9, 0xdf, 0x0d, 0xe6, 0x12, 0xe6, 0x10,
  0x11, 0x28, 0x15, 0xcb, 0xdc, 0xe8, 0xe8, 0xe1, 0xd2, 0xfc, 0xf4, 0xd1,
  0xef, 0xf2, 0xd1, 0xf2, 0x08, 0xd6, 0xed, 0xc5, 0xcd, 0xd0, 0xfe, 0xeb,
  0xcb, 0xeb, 0xc7, 0xdf, 0xd7, 0xe3, 0xe2, 0xd1, 0xee, 0x03, 0xdc, 0xc3,
  0xe1, 0xd0, 0xe4, 0x03, 0xb0, 0xdd, 0xec, 0xcf, 0xfe, 0xbf, 0xe1, 0xcb,
  0xd7, 0x04, 0xd0, 0xd9, 0x41, 0x29, 0x26, 0x1d, 0x16, 0x0d, 0x02, 0x2d,
  0xfb, 0x24, 0xef, 0x04, 0x28, 0x63, 0x29, 0x56, 0x13, 0xff, 0x2b, 0xfc,
  0x75, 0x0b, 0x2a, 0x26, 0x2e, 0xf1, 0x09, 0xfa, 0x25, 0x48, 0x34, 0x7f,
  0x39, 0x1d, 0x2a, 0x03, 0x3a, 0xf0, 0x45, 0x3d, 0xfc, 0x2e, 0x0a, 0xfa,
  0x1b, 0x44, 0x00, 0x68, 0x3b, 0x1c, 0x21, 0x0b, 0x15, 0x2d, 0x3d, 0xf0,
  0x27, 0xf8, 0x2b, 0x28, 0x1d, 0xed, 0x01, 0x28, 0x24, 0x31, 0xfc, 0x02,
  0x22, 0xfc, 0xfe, 0xf4, 0x15, 0x17, 0xe7, 0x00, 0xf1, 0xec, 0x1f, 0x0d,
  0x02, 0xff, 0x1e, 0x1f, 0x20, 0xe8, 0x36, 0xf3, 0xe9, 0x25, 0x1d, 0x1a,
  0xea, 0x0c, 0xfe, 0x33, 0x31, 0x24, 0x39, 0x21, 0x4a, 0x0d, 0x2f, 0x31,
  0xf4, 0x2f, 0xe8, 0x1c, 0x0d, 0x0e, 0x0c, 0x33, 0x2e, 0x08, 0x19, 0x17,
  0x2f, 0xed, 0x31, 0xe8, 0xf7, 0xea, 0x06, 0x01, 0x0b, 0xde, 0x33, 0x0a,
  0xec, 0x00, 0x0b, 0x0c, 0x43, 0x2f, 0x32, 0xfd, 0x06, 0x06, 0xff, 0x26,
  0x14, 0x02, 0xfd, 0x2b, 0xfc, 0x01, 0x0a, 0x2e, 0x4b, 0x22, 0xfa, 0x37,
  0x35, 0xf2, 0x22, 0x13, 0x08, 0xe7, 0x09, 0x12, 0x18, 0x0a, 0x0d, 0x3a,
  0xf6, 0xf8, 0x1c, 0x31, 0xf0, 0x33, 0xeb, 0x2b, 0xee, 0xc8, 0x31, 0x36,
  0x3b, 0x32, 0x31, 0x1a, 0x1b, 0xf2, 0xf2, 0xf0, 0xf0, 0xf3, 0x13, 0x0c,
  0x07, 0xf9, 0xf3, 0x18, 0xf2, 0xfe, 0x1b, 0xf9, 0x5d, 0xf9, 0xff, 0xee,
  0x00, 0x02, 0xfc, 0xf6, 0xf3, 0xd9, 0x14, 0x3e, 0x10, 0x14, 0x30, 0x1a,
  0x39, 0x1b, 0xf5, 0xfe, 0xec, 0x27, 0xeb, 0x27, 0x14, 0x38, 0xf7, 0x3c,
  0x08, 0x08, 0xfc, 0xea, 0x38, 0xe3, 0x2d, 0xfa, 0x01, 0xff, 0xd7, 0xdd,
  0x04, 0xec, 0xfb, 0x1b, 0x0d, 0xee, 0x11, 0xfe, 0x50, 0x0a, 0x20, 0x14,
  0x17, 0x25, 0xfc, 0xfc, 0xe4, 0x05, 0xef, 0xf5, 0x1a, 0x0c, 0x29, 0x11,
  0x15, 0x18, 0x11, 0x27, 0x22, 0x01, 0xe7, 0x0a, 0x22, 0x11, 0x0b, 0x14,
  0x01, 0x2f, 0x16, 0x2f, 0x28, 0x1f, 0x00, 0x1d, 0x0d, 0x24, 0xef, 0x0b,
  0x1a, 0xe6, 0x01, 0x3b, 0x01, 0x36, 0x05, 0x06, 0x12, 0xfa, 0x30, 0x0d,
  0x1f, 0xfb, 0x26, 0x29, 0xfc, 0x18, 0x11, 0x11, 0x00, 0x08, 0xfd, 0xea,
  0x36, 0x0d, 0x22, 0xf4, 0x25, 0xe0, 0x03, 0xe2, 0x2a, 0x01, 0xfa, 0x13,
  0x27, 0xde, 0x0c, 0xf0, 0xf7, 0x08, 0xf3, 0xfb, 0x05, 0x09, 0xfb, 0xf6,
  0x15, 0xe0, 0x0b, 0xfb, 0xea, 0x07, 0x02, 0x03, 0x15, 0xe6, 0x05, 0x02,
  0x03, 0x20, 0xf9, 0xec, 0x29, 0x04, 0xda, 0x13, 0x05, 0x27, 0x30, 0x26,
  0xe6, 0x18, 0x0c, 0x0f, 0x01, 0x21, 0x23, 0x1c, 0xff, 0xd7, 0xff, 0xe7,
  0x04, 0x1a, 0x1b, 0xdf, 0xd7, 0xf2, 0x24, 0x13, 0x21, 0x0f, 0x1d, 0x23,
  0xde, 0xe3, 0xfc, 0x06, 0x1b, 0xfb, 0x14, 0xe0, 0x43, 0x08, 0xde, 0xe2,
  0x22, 0xfe, 0x07, 0x15, 0x16, 0x39, 0x20, 0xf7, 0x20, 0x1d, 0xf5, 0x13,
  0x07, 0x12, 0x28, 0xec, 0x08, 0xf2, 0x06, 0xf6, 0x08, 0xfd, 0x2c, 0x1b,
  0x1f, 0xef, 0xea, 0xf3, 0x0d, 0xe6, 0x06, 0x0f, 0xe9, 0x05, 0x03, 0x1f,
  0xe6, 0xea, 0x22, 0x3e, 0x17, 0x07, 0x20, 0x1c, 0xe2, 0xf1, 0xef, 0xe4,
  0xe1, 0xef, 0x1a, 0x26, 0x0d, 0xf3, 0xe8, 0x25, 0x04, 0xe3, 0x0f, 0x34,
  0x40, 0xf0, 0x15, 0x25, 0x0f, 0xf2, 0xf6, 0xe5, 0x14, 0x28, 0x2b, 0x55,
  0x22, 0x01, 0x2b, 0x2f, 0x2b, 0x29, 0xfc, 0x08, 0xec, 0xf9, 0xe2, 0x19,
  0x12, 0xef, 0xff, 0x46, 0x1a, 0xe5, 0x31, 0xf4, 0x35, 0xf0, 0x20, 0x2b,
  0xed, 0x1a, 0x2c, 0x0d, 0x1a, 0xf6, 0x36, 0x16, 0xed, 0xfd, 0xfe, 0x1b,
  0x09, 0x05, 0xff, 0x30, 0x12, 0x1e, 0xf7, 0x25, 0x2a, 0xfe, 0xec, 0x24,
  0x00, 0x04, 0x1e, 0x2a, 0x05, 0xf0, 0xf3, 0x0d, 0x14, 0xfd, 0xde, 0xf7,
  0x0e, 0x11, 0xe4, 0x44, 0x00, 0xea, 0x14, 0x34, 0xda, 0xf3, 0x2b, 0xf1,
  0x1b, 0xfc, 0x1a, 0xf3, 0xeb, 0xe6, 0xf3, 0xfa, 0x0e, 0x06, 0x2b, 0xf5,
  0x42, 0x09, 0x30, 0xea, 0xf3, 0x12, 0x2c, 0x1b, 0x18, 0xd8, 0xfa, 0x51,
  0x22, 0xea, 0x2c, 0x24, 0x4b, 0x1f, 0x10, 0xf5, 0x2b, 0x30, 0xf0, 0x11,
  0x29, 0x37, 0x02, 0x5d, 0x14, 0x07, 0x22, 0x07, 0x34, 0x12, 0x15, 0x01,
  0xef, 0x0e, 0xfc, 0xf5, 0x02, 0xee, 0x33, 0x29, 0x0c, 0x13, 0x33, 0x0e,
  0x25, 0x39, 0x40, 0x20, 0xf3, 0x1c, 0x18, 0x2c, 0xf9, 0xfa, 0x58, 0x0e,
  0xc6, 0xfe, 0xff, 0xff, 0x04, 0x00, 0x00, 0x00, 0x08, 0x00, 0x00, 0x00,
  0x5b, 0x4d, 0x00, 0x00, 0xa5, 0xb2, 0xff, 0xff, 0xda, 0xfe, 0xff, 0xff,
  0x04, 0x00, 0x00, 0x00, 0x08, 0x00, 0x00, 0x00, 0xff, 0xff, 0xff, 0xff,
  0x60, 0x02, 0x00, 0x00, 0xee, 0xfe, 0xff, 0xff, 0x04, 0x00, 0x00, 0x00,
  0x10, 0x00, 0x00, 0x00, 0x01, 0x00, 0x00, 0x00, 0x4b, 0x00, 0x00, 0x00,
  0x01, 0x00, 0x00, 0x00, 0x10, 0x00, 0x00, 0x00, 0x0a, 0xff, 0xff, 0xff,
  0x04, 0x00, 0x00, 0x00, 0x10, 0x00, 0x00, 0x00, 0x01, 0x00, 0x00, 0x00,
  0x01, 0x00, 0x00, 0x00, 0x4b, 0x00, 0x00, 0x00, 0x08, 0x00, 0x00, 0x00,
  0x26, 0xff, 0xff, 0xff, 0x04, 0x00, 0x00, 0x00, 0x10, 0x00, 0x00, 0x00,
  0x01, 0x00, 0x00, 0x00, 0x95, 0x00, 0x00, 0x00, 0x01, 0x00, 0x00, 0x00,
  0x08, 0x00, 0x00, 0x00, 0x42, 0xff, 0xff, 0xff, 0x04, 0x00, 0x00, 0x00,
  0x10, 0x00, 0x00, 0x00, 0x01, 0x00, 0x00, 0x00, 0x01, 0x00, 0x00, 0x00,
  0x95, 0x00, 0x00, 0x00, 0x28, 0x00, 0x00, 0x00, 0x90, 0xf0, 0xff, 0xff,
  0x94, 0xf0, 0xff, 0xff, 0x0f, 0x00, 0x00, 0x00, 0x4d, 0x4c, 0x49, 0x52,
  0x20, 0x43, 0x6f, 0x6e, 0x76, 0x65, 0x72, 0x74, 0x65, 0x64, 0x2e, 0x00,
  0x01, 0x00, 0x00, 0x00, 0x14, 0x00, 0x00, 0x00, 0x00, 0x00, 0x0e, 0x00,
  0x18, 0x00, 0x14, 0x00, 0x10, 0x00, 0x0c, 0x00, 0x08, 0x00, 0x04, 0x00,
  0x0e, 0x00, 0x00, 0x00, 0x14, 0x00, 0x00, 0x00, 0x1c, 0x00, 0x00, 0x00,
  0x84, 0x02, 0x00, 0x00, 0x88, 0x02, 0x00, 0x00, 0x8c, 0x02, 0x00, 0x00,
  0x04, 0x00, 0x00, 0x00, 0x6d, 0x61, 0x69, 0x6e, 0x00, 0x00, 0x00, 0x00,
  0x0b, 0x00, 0x00, 0x00, 0x48, 0x02, 0x00, 0x00, 0xec, 0x01, 0x00, 0x00,
  0xb8, 0x01, 0x00, 0x00, 0x68, 0x01, 0x00, 0x00, 0x44, 0x01, 0x00, 0x00,
  0x00, 0x01, 0x00, 0x00, 0xdc, 0x00, 0x00, 0x00, 0x9c, 0x00, 0x00, 0x00,
  0x78, 0x00, 0x00, 0x00, 0x40, 0x00, 0x00, 0x00, 0x04, 0x00, 0x00, 0x00,
  0x4a, 0xfe, 0xff, 0xff, 0x1c, 0x00, 0x00, 0x00, 0x00, 0x00, 0x00, 0x09,
  0x1c, 0x00, 0x00, 0x00, 0x20, 0x00, 0x00, 0x00, 0x04, 0x00, 0x00, 0x00,
  0x00, 0x00, 0x06, 0x00, 0x08, 0x00, 0x04, 0x00, 0x06, 0x00, 0x00, 0x00,
  0x00, 0x00, 0x80, 0x3f, 0x01, 0x00, 0x00, 0x00, 0x16, 0x00, 0x00, 0x00,
  0x01, 0x00, 0x00, 0x00, 0x15, 0x00, 0x00, 0x00, 0x82, 0xfe, 0xff, 0xff,
  0x14, 0x00, 0x00, 0x00, 0x00, 0x00, 0x00, 0x08, 0x10, 0x00, 0x00, 0x00,
  0x14, 0x00, 0x00, 0x00, 0x03, 0x00, 0x00, 0x00, 0x68, 0xf1, 0xff, 0xff,
  0x01, 0x00, 0x00, 0x00, 0x15, 0x00, 0x00, 0x00, 0x03, 0x00, 0x00, 0x00,
  0x14, 0x00, 0x00, 0x00, 0x07, 0x00, 0x00, 0x00, 0x06, 0x00, 0x00, 0x00,
  0x5a, 0xfe, 0xff, 0xff, 0x08, 0x00, 0x00, 0x00, 0x0c, 0x00, 0x00, 0x00,
  0x01, 0x00, 0x00, 0x00, 0x14, 0x00, 0x00, 0x00, 0x02, 0x00, 0x00, 0x00,
  0x13, 0x00, 0x00, 0x00, 0x05, 0x00, 0x00, 0x00, 0xd6, 0xfe, 0xff, 0xff,
  0x14, 0x00, 0x00, 0x00, 0x00, 0x00, 0x00, 0x05, 0x20, 0x00, 0x00, 0x00,
  0x24, 0x00, 0x00, 0x00, 0x02, 0x00, 0x00, 0x00, 0x42, 0xff, 0xff, 0xff,
  0x02, 0x00, 0x00, 0x00, 0x01, 0x00, 0x00, 0x00, 0x02, 0x00, 0x00, 0x00,
  0x01, 0x00, 0x00, 0x00, 0x01, 0x00, 0x00, 0x00, 0x13, 0x00, 0x00, 0x00,
  0x01, 0x00, 0x00, 0x00, 0x12, 0x00, 0x00, 0x00, 0xb6, 0xfe, 0xff, 0xff,
  0x08, 0x00, 0x00, 0x00, 0x0c, 0x00, 0x00, 0x00, 0x01, 0x00, 0x00, 0x00,
  0x12, 0x00, 0x00, 0x00, 0x02, 0x00, 0x00, 0x00, 0x11, 0x00, 0x00, 0x00,
  0x04, 0x00, 0x00, 0x00, 0x32, 0xff, 0xff, 0xff, 0x14, 0x00, 0x00, 0x00,
  0x00, 0x00, 0x00, 0x01, 0x1c, 0x00, 0x00, 0x00, 0x20, 0x00, 0x00, 0x00,
  0x01, 0x00, 0x00, 0x00, 0x24, 0xff, 0xff, 0xff, 0x00, 0x00, 0x00, 0x01,
  0x01, 0x00, 0x00, 0x00, 0x01, 0x00, 0x00, 0x00, 0x01, 0x00, 0x00, 0x00,
  0x11, 0x00, 0x00, 0x00, 0x03, 0x00, 0x00, 0x00, 0x10, 0x00, 0x00, 0x00,
  0x09, 0x00, 0x00, 0x00, 0x08, 0x00, 0x00, 0x00, 0x16, 0xff, 0xff, 0xff,
  0x08, 0x00, 0x00, 0x00, 0x0c, 0x00, 0x00, 0x00, 0x01, 0x00, 0x00, 0x00,
  0x10, 0x00, 0x00, 0x00, 0x02, 0x00, 0x00, 0x00, 0x0f, 0x00, 0x00, 0x00,
  0x03, 0x00, 0x00, 0x00, 0x92, 0xff, 0xff, 0xff, 0x24, 0x00, 0x00, 0x00,
  0x00, 0x00, 0x00, 0x05, 0x30, 0x00, 0x00, 0x00, 0x34, 0x00, 0x00, 0x00,
  0x02, 0x00, 0x00, 0x00, 0x00, 0x00, 0x0e, 0x00, 0x14, 0x00, 0x00, 0x00,
  0x10, 0x00, 0x0c, 0x00, 0x08, 0x00, 0x04, 0x00, 0x0e, 0x00, 0x00, 0x00,
  0x02, 0x00, 0x00, 0x00, 0x01, 0x00, 0x00, 0x00, 0x02, 0x00, 0x00, 0x00,
  0x01, 0x00, 0x00, 0x00, 0x01, 0x00, 0x00, 0x00, 0x0f, 0x00, 0x00, 0x00,
  0x01, 0x00, 0x00, 0x00, 0x0e, 0x00, 0x00, 0x00, 0x82, 0xff, 0xff, 0xff,
  0x08, 0x00, 0x00, 0x00, 0x0c, 0x00, 0x00, 0x00, 0x01, 0x00, 0x00, 0x00,
  0x0e, 0x00, 0x00, 0x00, 0x02, 0x00, 0x00, 0x00, 0x0d, 0x00, 0x00, 0x00,
  0x02, 0x00, 0x00, 0x00, 0x00, 0x00, 0x0e, 0x00, 0x18, 0x00, 0x14, 0x00,
  0x10, 0x00, 0x0c, 0x00, 0x0b, 0x00, 0x04, 0x00, 0x0e, 0x00, 0x00, 0x00,
  0x20, 0x00, 0x00, 0x00, 0x00, 0x00, 0x00, 0x01, 0x28, 0x00, 0x00, 0x00,
  0x2c, 0x00, 0x00, 0x00, 0x01, 0x00, 0x00, 0x00, 0x0c, 0x00, 0x10, 0x00,
  0x00, 0x00, 0x0c, 0x00, 0x08, 0x00, 0x07, 0x00, 0x0c, 0x00, 0x00, 0x00,
  0x00, 0x00, 0x00, 0x01, 0x01, 0x00, 0x00, 0x00, 0x01, 0x00, 0x00, 0x00,
  0x01, 0x00, 0x00, 0x00, 0x0d, 0x00, 0x00, 0x00, 0x03, 0x00, 0x00, 0x00,
  0x0c, 0x00, 0x00, 0x00, 0x0b, 0x00, 0x00, 0x00, 0x0a, 0x00, 0x00, 0x00,
  0x00, 0x00, 0x0a, 0x00, 0x0c, 0x00, 0x00, 0x00, 0x08, 0x00, 0x04, 0x00,
  0x0a, 0x00, 0x00, 0x00, 0x08, 0x00, 0x00, 0x00, 0x0c, 0x00, 0x00, 0x00,
  0x01, 0x00, 0x00, 0x00, 0x0c, 0x00, 0x00, 0x00, 0x02, 0x00, 0x00, 0x00,
  0x00, 0x00, 0x00, 0x00, 0x01, 0x00, 0x00, 0x00, 0x01, 0x00, 0x00, 0x00,
  0x16, 0x00, 0x00, 0x00, 0x01, 0x00, 0x00, 0x00, 0x00, 0x00, 0x00, 0x00,
  0x17, 0x00, 0x00, 0x00, 0xe8, 0x0c, 0x00, 0x00, 0x78, 0x0c, 0x00, 0x00,
  0x24, 0x0c, 0x00, 0x00, 0xcc, 0x0b, 0x00, 0x00, 0x74, 0x0b, 0x00, 0x00,
  0x28, 0x0b, 0x00, 0x00, 0xac, 0x0a, 0x00, 0x00, 0x40, 0x0a, 0x00, 0x00,
  0x14, 0x09, 0x00, 0x00, 0xe8, 0x07, 0x00, 0x00, 0x1c, 0x07, 0x00, 0x00,
  0x50, 0x06, 0x00, 0x00, 0xcc, 0x05, 0x00, 0x00, 0xe0, 0x04, 0x00, 0x00,
  0x5c, 0x04, 0x00, 0x00, 0xe0, 0x03, 0x00, 0x00, 0x5c, 0x03, 0x00, 0x00,
  0x60, 0x02, 0x00, 0x00, 0xdc, 0x01, 0x00, 0x00, 0x60, 0x01, 0x00, 0x00,
  0xf4, 0x00, 0x00, 0x00, 0x70, 0x00, 0x00, 0x00, 0x04, 0x00, 0x00, 0x00,
  0x8a, 0xf3, 0xff, 0xff, 0x00, 0x00, 0x00, 0x01, 0x14, 0x00, 0x00, 0x00,
  0x30, 0x00, 0x00, 0x00, 0x17, 0x00, 0x00, 0x00, 0x00, 0x00, 0x00, 0x09,
  0x44, 0x00, 0x00, 0x00, 0x74, 0xf3, 0xff, 0xff, 0x08, 0x00, 0x00, 0x00,
  0x10, 0x00, 0x00, 0x00, 0x01, 0x00, 0x00, 0x00, 0x80, 0xff, 0xff, 0xff,
  0xff, 0xff, 0xff, 0xff, 0x01, 0x00, 0x00, 0x00, 0x00, 0x00, 0x80, 0x3b,
  0x19, 0x00, 0x00, 0x00, 0x53, 0x74, 0x61, 0x74, 0x65, 0x66, 0x75, 0x6c,
  0x50, 0x61, 0x72, 0x74, 0x69, 0x74, 0x69, 0x6f, 0x6e, 0x65, 0x64, 0x43,
  0x61, 0x6c, 0x6c, 0x3a, 0x30, 0x00, 0x00, 0x00, 0x02, 0x00, 0x00, 0x00,
  0x01, 0x00, 0x00, 0x00, 0x02, 0x00, 0x00, 0x00, 0xf2, 0xf3, 0xff, 0xff,
  0x00, 0x00, 0x00, 0x01, 0x14, 0x00, 0x00, 0x00, 0x30, 0x00, 0x00, 0x00,
  0x16, 0x00, 0x00, 0x00, 0x00, 0x00, 0x00, 0x09, 0x5c, 0x00, 0x00, 0x00,
  0xdc, 0xf3, 0xff, 0xff, 0x08, 0x00, 0x00, 0x00, 0x10, 0x00, 0x00, 0x00,
  0x01, 0x00, 0x00, 0x00, 0xff, 0xff, 0xff, 0xff, 0xff, 0xff, 0xff, 0xff,
  0x01, 0x00, 0x00, 0x00, 0x17, 0x84, 0x18, 0x3e, 0x32, 0x00, 0x00, 0x00,
  0x73, 0x65, 0x71, 0x75, 0x65, 0x6e, 0x74, 0x69, 0x61, 0x6c, 0x2f, 0x79,
  0x5f, 0x70, 0x72, 0x65, 0x64, 0x2f, 0x4d, 0x61, 0x74, 0x4d, 0x75, 0x6c,
  0x3b, 0x73, 0x65, 0x71, 0x75, 0x65, 0x6e, 0x74, 0x69, 0x61, 0x6c, 0x2f,
  0x79, 0x5f, 0x70, 0x72, 0x65, 0x64, 0x2f, 0x42, 0x69, 0x61, 0x73, 0x41,
  0x64, 0x64, 0x00, 0x00, 0x02, 0x00, 0x00, 0x00, 0x01, 0x00, 0x00, 0x00,
  0x02, 0x00, 0x00, 0x00, 0x72, 0xf4, 0xff, 0xff, 0x00, 0x00, 0x00, 0x01,
  0x14, 0x00, 0x00, 0x00, 0x30, 0x00, 0x00, 0x00, 0x15, 0x00, 0x00, 0x00,
  0x00, 0x00, 0x00, 0x09, 0x44, 0x00, 0x00, 0x00, 0x5c, 0xf4, 0xff, 0xff,
  0x08, 0x00, 0x00, 0x00, 0x10, 0x00, 0x00, 0x00, 0x01, 0x00, 0x00, 0x00,
  0x80, 0xff, 0xff, 0xff, 0xff, 0xff, 0xff, 0xff, 0x01, 0x00, 0x00, 0x00,
  0xf6, 0x35, 0xea, 0x3b, 0x1a, 0x00, 0x00, 0x00, 0x73, 0x65, 0x71, 0x75,
  0x65, 0x6e, 0x74, 0x69, 0x61, 0x6c, 0x2f, 0x66, 0x6c, 0x61, 0x74, 0x74,
  0x65, 0x6e, 0x2f, 0x52, 0x65, 0x73, 0x68, 0x61, 0x70, 0x65, 0x00, 0x00,
  0x02, 0x00, 0x00, 0x00, 0x01, 0x00, 0x00, 0x00, 0x60, 0x02, 0x00, 0x00,
  0xda, 0xf4, 0xff, 0xff, 0x00, 0x00, 0x00, 0x01, 0x14, 0x00, 0x00, 0x00,
  0x30, 0x00, 0x00, 0x00, 0x14, 0x00, 0x00, 0x00, 0x00, 0x00, 0x00, 0x09,
  0x4c, 0x00, 0x00, 0x00, 0xc4, 0xf4, 0xff, 0xff, 0x08, 0x00, 0x00, 0x00,
  0x10, 0x00, 0x00, 0x00, 0x01, 0x00, 0x00, 0x00, 0x80, 0xff, 0xff, 0xff,
  0xff, 0xff, 0xff, 0xff, 0x01, 0x00, 0x00, 0x00, 0xf6, 0x35, 0xea, 0x3b,
  0x22, 0x00, 0x00, 0x00, 0x73, 0x65, 0x71, 0x75, 0x65, 0x6e, 0x74, 0x69,
  0x61, 0x6c, 0x2f, 0x6d, 0x61, 0x78, 0x5f, 0x70, 0x6f, 0x6f, 0x6c, 0x69,
  0x6e, 0x67, 0x31, 0x64, 0x5f, 0x31, 0x2f, 0x4d, 0x61, 0x78, 0x50, 0x6f,
  0x6f, 0x6c, 0x00, 0x00, 0x04, 0x00, 0x00, 0x00, 0x01, 0x00, 0x00, 0x00,
  0x26, 0x00, 0x00, 0x00, 0x01, 0x00, 0x00, 0x00, 0x10, 0x00, 0x00, 0x00,
  0x52, 0xf5, 0xff, 0xff, 0x00, 0x00, 0x00, 0x01, 0x14, 0x00, 0x00, 0x00,
  0x34, 0x00, 0x00, 0x00, 0x13, 0x00, 0x00, 0x00, 0x00, 0x00, 0x00, 0x09,
  0x54, 0x00, 0x00, 0x00, 0x3c, 0xf5, 0xff, 0xff, 0x08, 0x00, 0x00, 0x00,
  0x14, 0x00, 0x00, 0x00, 0x01, 0x00, 0x00, 0x00, 0x80, 0xff, 0xff, 0xff,
  0xff, 0xff, 0xff, 0xff, 0x00, 0x00, 0x00, 0x00, 0x01, 0x00, 0x00, 0x00,
  0xf6, 0x35, 0xea, 0x3b, 0x26, 0x00, 0x00, 0x00, 0x73, 0x65, 0x71, 0x75,
  0x65, 0x6e, 0x74, 0x69, 0x61, 0x6c, 0x2f, 0x6d, 0x61, 0x78, 0x5f, 0x70,
  0x6f, 0x6f, 0x6c, 0x69, 0x6e, 0x67, 0x31, 0x64, 0x5f, 0x31, 0x2f, 0x45,
  0x78, 0x70, 0x61, 0x6e, 0x64, 0x44, 0x69, 0x6d, 0x73, 0x31, 0x00, 0x00,
  0x04, 0x00, 0x00, 0x00, 0x01, 0x00, 0x00, 0x00, 0x4b, 0x00, 0x00, 0x00,
  0x01, 0x00, 0x00, 0x00, 0x10, 0x00, 0x00, 0x00, 0xd2, 0xf5, 0xff, 0xff,
  0x00, 0x00, 0x00, 0x01, 0x14, 0x00, 0x00, 0x00, 0x34, 0x00, 0x00, 0x00,
  0x12, 0x00, 0x00, 0x00, 0x00, 0x00, 0x00, 0x09, 0xcc, 0x00, 0x00, 0x00,
  0xbc, 0xf5, 0xff, 0xff, 0x08, 0x00, 0x00, 0x00, 0x14, 0x00, 0x00, 0x00,
  0x01, 0x00, 0x00, 0x00, 0x80, 0xff, 0xff, 0xff, 0xff, 0xff, 0xff, 0xff,
  0x00, 0x00, 0x00, 0x00, 0x01, 0x00, 0x00, 0x00, 0xf6, 0x35, 0xea, 0x3b,
  0x9d, 0x00, 0x00, 0x00, 0x73, 0x65, 0x71, 0x75, 0x65, 0x6e, 0x74, 0x69,
  0x61, 0x6c, 0x2f, 0x63, 0x6f, 0x6e, 0x76, 0x31, 0x64, 0x5f, 0x31, 0x2f,
  0x52, 0x65, 0x6c, 0x75, 0x3b, 0x73, 0x65, 0x71, 0x75, 0x65, 0x6e, 0x74,
  0x69, 0x61, 0x6c, 0x2f, 0x63, 0x6f, 0x6e, 0x76, 0x31, 0x64, 0x5f, 0x31,
  0x2f, 0x42, 0x69, 0x61, 0x73, 0x41, 0x64, 0x64, 0x3b, 0x73, 0x65, 0x71,
  0x75, 0x65, 0x6e, 0x74, 0x69, 0x61, 0x6c, 0x2f, 0x63, 0x6f, 0x6e, 0x76,
  0x31, 0x64, 0x5f, 0x31, 0x2f, 0x43, 0x6f, 0x6e, 0x76, 0x31, 0x44, 0x2f,
  0x53, 0x71, 0x75, 0x65, 0x65, 0x7a, 0x65, 0x3b, 0x73, 0x65, 0x71, 0x75,
  0x65, 0x6e, 0x74, 0x69, 0x61, 0x6c, 0x2f, 0x63, 0x6f, 0x6e, 0x76, 0x31,
  0x64, 0x5f, 0x31, 0x2f, 0x42, 0x69, 0x61, 0x73, 0x41, 0x64, 0x64, 0x2f,
  0x52, 0x65, 0x61, 0x64, 0x56, 0x61, 0x72, 0x69, 0x61, 0x62, 0x6c, 0x65,
  0x4f, 0x70, 0x3b, 0x73, 0x65, 0x71, 0x75, 0x65, 0x6e, 0x74, 0x69, 0x61,
  0x6c, 0x2f, 0x63, 0x6f, 0x6e, 0x76, 0x31, 0x64, 0x5f, 0x31, 0x2f, 0x43,
  0x6f, 0x6e, 0x76, 0x31, 0x44, 0x00, 0x00, 0x00, 0x04, 0x00, 0x00, 0x00,
  0x01, 0x00, 0x00, 0x00, 0x01, 0x00, 0x00, 0x00, 0x4b, 0x00, 0x00, 0x00,
  0x10, 0x00, 0x00, 0x00, 0xca, 0xf6, 0xff, 0xff, 0x00, 0x00, 0x00, 0x01,
  0x14, 0x00, 0x00, 0x00, 0x34, 0x00, 0x00, 0x00, 0x11, 0x00, 0x00, 0x00,
  0x00, 0x00, 0x00, 0x09, 0x54, 0x00, 0x00, 0x00, 0xb4, 0xf6, 0xff, 0xff,
  0x08, 0x00, 0x00, 0x00, 0x14, 0x00, 0x00, 0x00, 0x01, 0x00, 0x00, 0x00,
  0x80, 0xff, 0xff, 0xff, 0xff, 0xff, 0xff, 0xff, 0x00, 0x00, 0x00, 0x00,
  0x01, 0x00, 0x00, 0x00, 0x4f, 0x7a, 0x65, 0x3b, 0x26, 0x00, 0x00, 0x00,
  0x73, 0x65, 0x71, 0x75, 0x65, 0x6e, 0x74, 0x69, 0x61, 0x6c, 0x2f, 0x63,
  0x6f, 0x6e, 0x76, 0x31, 0x64, 0x5f, 0x31, 0x2f, 0x43, 0x6f, 0x6e, 0x76,
  0x31, 0x44, 0x2f, 0x45, 0x78, 0x70, 0x61, 0x6e, 0x64, 0x44, 0x69, 0x6d,
  0x73, 0x31, 0x00, 0x00, 0x04, 0x00, 0x00, 0x00, 0x01, 0x00, 0x00, 0x00,
  0x01, 0x00, 0x00, 0x00, 0x4b, 0x00, 0x00, 0x00, 0x08, 0x00, 0x00, 0x00,
  0x4a, 0xf7, 0xff, 0xff, 0x00, 0x00, 0x00, 0x01, 0x14, 0x00, 0x00, 0x00,
  0x30, 0x00, 0x00, 0x00, 0x10, 0x00, 0x00, 0x00, 0x00, 0x00, 0x00, 0x09,
  0x4c, 0x00, 0x00, 0x00, 0x34, 0xf7, 0xff, 0xff, 0x08, 0x00, 0x00, 0x00,
  0x10, 0x00, 0x00, 0x00, 0x01, 0x00, 0x00, 0x00, 0x80, 0xff, 0xff, 0xff,
  0xff, 0xff, 0xff, 0xff, 0x01, 0x00, 0x00, 0x00, 0x4f, 0x7a, 0x65, 0x3b,
  0x20, 0x00, 0x00, 0x00, 0x73, 0x65, 0x71, 0x75, 0x65, 0x6e, 0x74, 0x69,
  0x61, 0x6c, 0x2f, 0x6d, 0x61, 0x78, 0x5f, 0x70, 0x6f, 0x6f, 0x6c, 0x69,
  0x6e, 0x67, 0x31, 0x64, 0x2f, 0x4d, 0x61, 0x78, 0x50, 0x6f, 0x6f, 0x6c,
  0x00, 0x00, 0x00, 0x00, 0x04, 0x00, 0x00, 0x00, 0x01, 0x00, 0x00, 0x00,
  0x4b, 0x00, 0x00, 0x00, 0x01, 0x00, 0x00, 0x00, 0x08, 0x00, 0x00, 0x00,
  0xc2, 0xf7, 0xff, 0xff, 0x00, 0x00, 0x00, 0x01, 0x14, 0x00, 0x00, 0x00,
  0x34, 0x00, 0x00, 0x00, 0x0f, 0x00, 0x00, 0x00, 0x00, 0x00, 0x00, 0x09,
  0x54, 0x00, 0x00, 0x00, 0xac, 0xf7, 0xff, 0xff, 0x08, 0x00, 0x00, 0x00,
  0x14, 0x00, 0x00, 0x00, 0x01, 0x00, 0x00, 0x00, 0x80, 0xff, 0xff, 0xff,
  0xff, 0xff, 0xff, 0xff, 0x00, 0x00, 0x00, 0x00, 0x01, 0x00, 0x00, 0x00,
  0x4f, 0x7a, 0x65, 0x3b, 0x24, 0x00, 0x00, 0x00, 0x73, 0x65, 0x71, 0x75,
  0x65, 0x6e, 0x74, 0x69, 0x61, 0x6c, 0x2f, 0x6d, 0x61, 0x78, 0x5f, 0x70,
  0x6f, 0x6f, 0x6c, 0x69, 0x6e, 0x67, 0x31, 0x64, 0x2f, 0x45, 0x78, 0x70,
  0x61, 0x6e, 0x64, 0x44, 0x69, 0x6d, 0x73, 0x31, 0x00, 0x00, 0x00, 0x00,
  0x04, 0x00, 0x00, 0x00, 0x01, 0x00, 0x00, 0x00, 0x95, 0x00, 0x00, 0x00,
  0x01, 0x00, 0x00, 0x00, 0x08, 0x00, 0x00, 0x00, 0x42, 0xf8, 0xff, 0xff,
  0x00, 0x00, 0x00, 0x01, 0x14, 0x00, 0x00, 0x00, 0x30, 0x00, 0x00, 0x00,
  0x0e, 0x00, 0x00, 0x00, 0x00, 0x00, 0x00, 0x09, 0xbc, 0x00, 0x00, 0x00,
  0x2c, 0xf8, 0xff, 0xff, 0x08, 0x00, 0x00, 0x00, 0x10, 0x00, 0x00, 0x00,
  0x01, 0x00, 0x00, 0x00, 0x80, 0xff, 0xff, 0xff, 0xff, 0xff, 0xff, 0xff,
  0x01, 0x00, 0x00, 0x00, 0x4f, 0x7a, 0x65, 0x3b, 0x93, 0x00, 0x00, 0x00,
  0x73, 0x65, 0x71, 0x75, 0x65, 0x6e, 0x74, 0x69, 0x61, 0x6c, 0x2f, 0x63,
  0x6f, 0x6e, 0x76, 0x31, 0x64, 0x2f, 0x52, 0x65, 0x6c, 0x75, 0x3b, 0x73,
  0x65, 0x71, 0x75, 0x65, 0x6e, 0x74, 0x69, 0x61, 0x6c, 0x2f, 0x63, 0x6f,
  0x6e, 0x76, 0x31, 0x64, 0x2f, 0x42, 0x69, 0x61, 0x73, 0x41, 0x64, 0x64,
  0x3b, 0x73, 0x65, 0x71, 0x75, 0x65, 0x6e, 0x74, 0x69, 0x61, 0x6c, 0x2f,
  0x63, 0x6f, 0x6e, 0x76, 0x31, 0x64, 0x2f, 0x43, 0x6f, 0x6e, 0x76, 0x31,
  0x44, 0x2f, 0x53, 0x71, 0x75, 0x65, 0x65, 0x7a, 0x65, 0x3b, 0x73, 0x65,
  0x71, 0x75, 0x65, 0x6e, 0x74, 0x69, 0x61, 0x6c, 0x2f, 0x63, 0x6f, 0x6e,
  0x76, 0x31, 0x64, 0x2f, 0x42, 0x69, 0x61, 0x73, 0x41, 0x64, 0x64, 0x2f,
  0x52, 0x65, 0x61, 0x64, 0x56, 0x61, 0x72, 0x69, 0x61, 0x62, 0x6c, 0x65,
  0x4f, 0x70, 0x3b, 0x73, 0x65, 0x71, 0x75, 0x65, 0x6e, 0x74, 0x69, 0x61,
  0x6c, 0x2f, 0x63, 0x6f, 0x6e, 0x76, 0x31, 0x64, 0x2f, 0x43, 0x6f, 0x6e,
  0x76, 0x31, 0x44, 0x00, 0x04, 0x00, 0x00, 0x00, 0x01, 0x00, 0x00, 0x00,
  0x01, 0x00, 0x00, 0x00, 0x95, 0x00, 0x00, 0x00, 0x08, 0x00, 0x00, 0x00,
  0x2a, 0xf9, 0xff, 0xff, 0x00, 0x00, 0x00, 0x01, 0x14, 0x00, 0x00, 0x00,
  0x34, 0x00, 0x00, 0x00, 0x0d, 0x00, 0x00, 0x00, 0x00, 0x00, 0x00, 0x09,
  0x54, 0x00, 0x00, 0x00, 0x14, 0xf9, 0xff, 0xff, 0x08, 0x00, 0x00, 0x00,
  0x14, 0x00, 0x00, 0x00, 0x01, 0x00, 0x00, 0x00, 0x80, 0xff, 0xff, 0xff,
  0xff, 0xff, 0xff, 0xff, 0x00, 0x00, 0x00, 0x00, 0x01, 0x00, 0x00, 0x00,
  0xc0, 0xbf, 0x3f, 0x3b, 0x24, 0x00, 0x00, 0x00, 0x73, 0x65, 0x71, 0x75,
  0x65, 0x6e, 0x74, 0x69, 0x61, 0x6c, 0x2f, 0x63, 0x6f, 0x6e, 0x76, 0x31,
  0x64, 0x2f, 0x43, 0x6f, 0x6e, 0x76, 0x31, 0x44, 0x2f, 0x45, 0x78, 0x70,
  0x61, 0x6e, 0x64, 0x44, 0x69, 0x6d, 0x73, 0x31, 0x00, 0x00, 0x00, 0x00,
  0x04, 0x00, 0x00, 0x00, 0x01, 0x00, 0x00, 0x00, 0x01, 0x00, 0x00, 0x00,
  0x95, 0x00, 0x00, 0x00, 0x28, 0x00, 0x00, 0x00, 0xaa, 0xf9, 0xff, 0xff,
  0x00, 0x00, 0x00, 0x01, 0x14, 0x00, 0x00, 0x00, 0x88, 0x00, 0x00, 0x00,
  0x0c, 0x00, 0x00, 0x00, 0x00, 0x00, 0x00, 0x09, 0x9c, 0x00, 0x00, 0x00,
  0x94, 0xf9, 0xff, 0xff, 0x08, 0x00, 0x00, 0x00, 0x4c, 0x00, 0x00, 0x00,
  0x08, 0x00, 0x00, 0x00, 0x00, 0x00, 0x00, 0x00, 0x00, 0x00, 0x00, 0x00,
  0x00, 0x00, 0x00, 0x00, 0x00, 0x00, 0x00, 0x00, 0x00, 0x00, 0x00, 0x00,
  0x00, 0x00, 0x00, 0x00, 0x00, 0x00, 0x00, 0x00, 0x00, 0x00, 0x00, 0x00,
  0x00, 0x00, 0x00, 0x00, 0x00, 0x00, 0x00, 0x00, 0x00, 0x00, 0x00, 0x00,
  0x00, 0x00, 0x00, 0x00, 0x00, 0x00, 0x00, 0x00, 0x00, 0x00, 0x00, 0x00,
  0x00, 0x00, 0x00, 0x00, 0x00, 0x00, 0x00, 0x00, 0x00, 0x00, 0x00, 0x00,
  0x08, 0x00, 0x00, 0x00, 0x38, 0xe3, 0x34, 0x3b, 0x12, 0xc7, 0xda, 0x3a,
  0xfc, 0x21, 0x22, 0x3b, 0x14, 0x6d, 0x13, 0x3b, 0xcf, 0xba, 0x01, 0x3b,
  0x03, 0x1e, 0xe2, 0x3a, 0x64, 0x7b, 0x42, 0x3b, 0x46, 0x67, 0x13, 0x3b,
  0x18, 0x00, 0x00, 0x00, 0x73, 0x65, 0x71, 0x75, 0x65, 0x6e, 0x74, 0x69,
  0x61, 0x6c, 0x2f, 0x63, 0x6f, 0x6e, 0x76, 0x31, 0x64, 0x2f, 0x43, 0x6f,
  0x6e, 0x76, 0x31, 0x44, 0x00, 0x00, 0x00, 0x00, 0x04, 0x00, 0x00, 0x00,
  0x08, 0x00, 0x00, 0x00, 0x01, 0x00, 0x00, 0x00, 0x03, 0x00, 0x00, 0x00,
  0x28, 0x00, 0x00, 0x00, 0x72, 0xfa, 0xff, 0xff, 0x00, 0x00, 0x00, 0x01,
  0x14, 0x00, 0x00, 0x00, 0x84, 0x00, 0x00, 0x00, 0x0b, 0x00, 0x00, 0x00,
  0x00, 0x00, 0x00, 0x02, 0xa8, 0x00, 0x00, 0x00, 0x5c, 0xfa, 0xff, 0xff,
  0x08, 0x00, 0x00, 0x00, 0x48, 0x00, 0x00, 0x00, 0x08, 0x00, 0x00, 0x00,
  0x00, 0x00, 0x00, 0x00, 0x00, 0x00, 0x00, 0x00, 0x00, 0x00, 0x00, 0x00,
  0x00, 0x00, 0x00, 0x00, 0x00, 0x00, 0x00, 0x00, 0x00, 0x00, 0x00, 0x00,
  0x00, 0x00, 0x00, 0x00, 0x00, 0x00, 0x00, 0x00, 0x00, 0x00, 0x00, 0x00,
  0x00, 0x00, 0x00, 0x00, 0x00, 0x00, 0x00, 0x00, 0x00, 0x00, 0x00, 0x00,
  0x00, 0x00, 0x00, 0x00, 0x00, 0x00, 0x00, 0x00, 0x00, 0x00, 0x00, 0x00,
  0x00, 0x00, 0x00, 0x00, 0x08, 0x00, 0x00, 0x00, 0x04, 0x7d, 0x07, 0x37,
  0x65, 0xde, 0xa3, 0x36, 0x98, 0xe1, 0xf2, 0x36, 0x9e, 0xd9, 0xdc, 0x36,
  0x18, 0x57, 0xc2, 0x36, 0xc2, 0x5d, 0xa9, 0x36, 0xbc, 0xab, 0x11, 0x37,
  0xec, 0xd0, 0xdc, 0x36, 0x28, 0x00, 0x00, 0x00, 0x73, 0x65, 0x71, 0x75,
  0x65, 0x6e, 0x74, 0x69, 0x61, 0x6c, 0x2f, 0x63, 0x6f, 0x6e, 0x76, 0x31,
  0x64, 0x2f, 0x42, 0x69, 0x61, 0x73, 0x41, 0x64, 0x64, 0x2f, 0x52, 0x65,
  0x61, 0x64, 0x56, 0x61, 0x72, 0x69, 0x61, 0x62, 0x6c, 0x65, 0x4f, 0x70,
  0x00, 0x00, 0x00, 0x00, 0x01, 0x00, 0x00, 0x00, 0x08, 0x00, 0x00, 0x00,
  0x3a, 0xfb, 0xff, 0xff, 0x00, 0x00, 0x00, 0x01, 0x14, 0x00, 0x00, 0x00,
  0xe8, 0x00, 0x00, 0x00, 0x0a, 0x00, 0x00, 0x00, 0x00, 0x00, 0x00, 0x09,
  0xfc, 0x00, 0x00, 0x00, 0x24, 0xfb, 0xff, 0xff, 0x08, 0x00, 0x00, 0x00,
  0x8c, 0x00, 0x00, 0x00, 0x10, 0x00, 0x00, 0x00, 0x00, 0x00, 0x00, 0x00,
  0x00, 0x00, 0x00, 0x00, 0x00, 0x00, 0x00, 0x00, 0x00, 0x00, 0x00, 0x00,
  0x00, 0x00, 0x00, 0x00, 0x00, 0x00, 0x00, 0x00, 0x00, 0x00, 0x00, 0x00,
  0x00, 0x00, 0x00, 0x00, 0x00, 0x00, 0x00, 0x00, 0x00, 0x00, 0x00, 0x00,
  0x00, 0x00, 0x00, 0x00, 0x00, 0x00, 0x00, 0x00, 0x00, 0x00, 0x00, 0x00,
  0x00, 0x00, 0x00, 0x00, 0x00, 0x00, 0x00, 0x00, 0x00, 0x00, 0x00, 0x00,
  0x00, 0x00, 0x00, 0x00, 0x00, 0x00, 0x00, 0x00, 0x00, 0x00, 0x00, 0x00,
  0x00, 0x00, 0x00, 0x00, 0x00, 0x00, 0x00, 0x00, 0x00, 0x00, 0x00, 0x00,
  0x00, 0x00, 0x00, 0x00, 0x00, 0x00, 0x00, 0x00, 0x00, 0x00, 0x00, 0x00,
  0x00, 0x00, 0x00, 0x00, 0x00, 0x00, 0x00, 0x00, 0x00, 0x00, 0x00, 0x00,
  0x00, 0x00, 0x00, 0x00, 0x00, 0x00, 0x00, 0x00, 0x00, 0x00, 0x00, 0x00,
  0x00, 0x00, 0x00, 0x00, 0x00, 0x00, 0x00, 0x00, 0x10, 0x00, 0x00, 0x00,
  0xc6, 0xc9, 0x47, 0x3b, 0xab, 0xc5, 0x43, 0x3b, 0xba, 0x6a, 0x48, 0x3b,
  0x21, 0xd1, 0x43, 0x3b, 0x25, 0x94, 0x5b, 0x3b, 0x6e, 0xaf, 0x1c, 0x3b,
  0xe1, 0x3f, 0x36, 0x3b, 0xab, 0x2d, 0x43, 0x3b, 0x67, 0x11, 0x2e, 0x3b,
  0x33, 0xc7, 0x64, 0x3b, 0xb1, 0xcf, 0x20, 0x3b, 0x36, 0x8a, 0x0f, 0x3b,
  0x46, 0x3b, 0x46, 0x3b, 0x06, 0x5d, 0x50, 0x3b, 0x59, 0x81, 0x3c, 0x3b,
  0x6c, 0x06, 0x33, 0x3b, 0x1a, 0x00, 0x00, 0x00, 0x73, 0x65, 0x71, 0x75,
  0x65, 0x6e, 0x74, 0x69, 0x61, 0x6c, 0x2f, 0x63, 0x6f, 0x6e, 0x76, 0x31,
  0x64, 0x5f, 0x31, 0x2f, 0x43, 0x6f, 0x6e, 0x76, 0x31, 0x44, 0x00, 0x00,
  0x04, 0x00, 0x00, 0x00, 0x10, 0x00, 0x00, 0x00, 0x01, 0x00, 0x00, 0x00,
  0x03, 0x00, 0x00, 0x00, 0x08, 0x00, 0x00, 0x00, 0x62, 0xfc, 0xff, 0xff,
  0x00, 0x00, 0x00, 0x01, 0x14, 0x00, 0x00, 0x00, 0xe4, 0x00, 0x00, 0x00,
  0x09, 0x00, 0x00, 0x00, 0x00, 0x00, 0x00, 0x02, 0x08, 0x01, 0x00, 0x00,
  0x4c, 0xfc, 0xff, 0xff, 0x08, 0x00, 0x00, 0x00, 0x88, 0x00, 0x00, 0x00,
  0x10, 0x00, 0x00, 0x00, 0x00, 0x00, 0x00, 0x00, 0x00, 0x00, 0x00, 0x00,
  0x00, 0x00, 0x00, 0x00, 0x00, 0x00, 0x00, 0x00, 0x00, 0x00, 0x00, 0x00,
  0x00, 0x00, 0x00, 0x00, 0x00, 0x00, 0x00, 0x00, 0x00, 0x00, 0x00, 0x00,
  0x00, 0x00, 0x00, 0x00, 0x00, 0x00, 0x00, 0x00, 0x00, 0x00, 0x00, 0x00,
  0x00, 0x00, 0x00, 0x00, 0x00, 0x00, 0x00, 0x00, 0x00, 0x00, 0x00, 0x00,
  0x00, 0x00, 0x00, 0x00, 0x00, 0x00, 0x00, 0x00, 0x00, 0x00, 0x00, 0x00,
  0x00, 0x00, 0x00, 0x00, 0x00, 0x00, 0x00, 0x00, 0x00, 0x00, 0x00, 0x00,
  0x00, 0x00, 0x00, 0x00, 0x00, 0x00, 0x00, 0x00, 0x00, 0x00, 0x00, 0x00,
  0x00, 0x00, 0x00, 0x00, 0x00, 0x00, 0x00, 0x00, 0x00, 0x00, 0x00, 0x00,
  0x00, 0x00, 0x00, 0x00, 0x00, 0x00, 0x00, 0x00, 0x00, 0x00, 0x00, 0x00,
  0x00, 0x00, 0x00, 0x00, 0x00, 0x00, 0x00, 0x00, 0x00, 0x00, 0x00, 0x00,
  0x10, 0x00, 0x00, 0x00, 0xf2, 0x16, 0x33, 0x37, 0x5b, 0x7d, 0x2f, 0x37,
  0x39, 0xa7, 0x33, 0x37, 0xa1, 0x87, 0x2f, 0x37, 0x6d, 0xd4, 0x44, 0x37,
  0xc9, 0x73, 0x0c, 0x37, 0x37, 0x5e, 0x23, 0x37, 0x1a, 0xf5, 0x2e, 0x37,
  0xbb, 0x08, 0x1c, 0x37, 0x7e, 0x13, 0x4d, 0x37, 0x9e, 0x26, 0x10, 0x37,
  0x36, 0xab, 0x00, 0x37, 0xbb, 0xb1, 0x31, 0x37, 0xc3, 0xc6, 0x3a, 0x37,
  0xc4, 0xf9, 0x28, 0x37, 0x47, 0x7a, 0x20, 0x37, 0x2a, 0x00, 0x00, 0x00,
  0x73, 0x65, 0x71, 0x75, 0x65, 0x6e, 0x74, 0x69, 0x61, 0x6c, 0x2f, 0x63,
  0x6f, 0x6e, 0x76, 0x31, 0x64, 0x5f, 0x31, 0x2f, 0x42, 0x69, 0x61, 0x73,
  0x41, 0x64, 0x64, 0x2f, 0x52, 0x65, 0x61, 0x64, 0x56, 0x61, 0x72, 0x69,
  0x61, 0x62, 0x6c, 0x65, 0x4f, 0x70, 0x00, 0x00, 0x01, 0x00, 0x00, 0x00,
  0x10, 0x00, 0x00, 0x00, 0x8a, 0xfd, 0xff, 0xff, 0x00, 0x00, 0x00, 0x01,
  0x14, 0x00, 0x00, 0x00, 0x30, 0x00, 0x00, 0x00, 0x08, 0x00, 0x00, 0x00,
  0x00, 0x00, 0x00, 0x09, 0x44, 0x00, 0x00, 0x00, 0x74, 0xfd, 0xff, 0xff,
  0x08, 0x00, 0x00, 0x00, 0x10, 0x00, 0x00, 0x00, 0x01, 0x00, 0x00, 0x00,
  0x00, 0x00, 0x00, 0x00, 0x00, 0x00, 0x00, 0x00, 0x01, 0x00, 0x00, 0x00,
  0xce, 0x97, 0x28, 0x3b, 0x18, 0x00, 0x00, 0x00, 0x73, 0x65, 0x71, 0x75,
  0x65, 0x6e, 0x74, 0x69, 0x61, 0x6c, 0x2f, 0x79, 0x5f, 0x70, 0x72, 0x65,
  0x64, 0x2f, 0x4d, 0x61, 0x74, 0x4d, 0x75, 0x6c, 0x00, 0x00, 0x00, 0x00,
  0x02, 0x00, 0x00, 0x00, 0x02, 0x00, 0x00, 0x00, 0x60, 0x02, 0x00, 0x00,
  0xf2, 0xfd, 0xff, 0xff, 0x00, 0x00, 0x00, 0x01, 0x14, 0x00, 0x00, 0x00,
  0x34, 0x00, 0x00, 0x00, 0x07, 0x00, 0x00, 0x00, 0x00, 0x00, 0x00, 0x02,
  0x58, 0x00, 0x00, 0x00, 0xdc, 0xfd, 0xff, 0xff, 0x08, 0x00, 0x00, 0x00,
  0x14, 0x00, 0x00, 0x00, 0x01, 0x00, 0x00, 0x00, 0x00, 0x00, 0x00, 0x00,
  0x00, 0x00, 0x00, 0x00, 0x00, 0x00, 0x00, 0x00, 0x01, 0x00, 0x00, 0x00,
  0x4c, 0x3e, 0x9a, 0x37, 0x28, 0x00, 0x00, 0x00, 0x73, 0x65, 0x71, 0x75,
  0x65, 0x6e, 0x74, 0x69, 0x61, 0x6c, 0x2f, 0x79, 0x5f, 0x70, 0x72, 0x65,
  0x64, 0x2f, 0x42, 0x69, 0x61, 0x73, 0x41, 0x64, 0x64, 0x2f, 0x52, 0x65,
  0x61, 0x64, 0x56, 0x61, 0x72, 0x69, 0x61, 0x62, 0x6c, 0x65, 0x4f, 0x70,
  0x00, 0x00, 0x00, 0x00, 0x01, 0x00, 0x00, 0x00, 0x02, 0x00, 0x00, 0x00,
  0x6a, 0xfe, 0xff, 0xff, 0x00, 0x00, 0x00, 0x01, 0x14, 0x00, 0x00, 0x00,
  0x14, 0x00, 0x00, 0x00, 0x06, 0x00, 0x00, 0x00, 0x00, 0x00, 0x00, 0x02,
  0x28, 0x00, 0x00, 0x00, 0xc0, 0xfe, 0xff, 0xff, 0x18, 0x00, 0x00, 0x00,
  0x73, 0x65, 0x71, 0x75, 0x65, 0x6e, 0x74, 0x69, 0x61, 0x6c, 0x2f, 0x66,
  0x6c, 0x61, 0x74, 0x74, 0x65, 0x6e, 0x2f, 0x43, 0x6f, 0x6e, 0x73, 0x74,
  0x00, 0x00, 0x00, 0x00, 0x01, 0x00, 0x00, 0x00, 0x02, 0x00, 0x00, 0x00,
  0xb2, 0xfe, 0xff, 0xff, 0x00, 0x00, 0x00, 0x01, 0x14, 0x00, 0x00, 0x00,
  0x14, 0x00, 0x00, 0x00, 0x05, 0x00, 0x00, 0x00, 0x00, 0x00, 0x00, 0x02,
  0x34, 0x00, 0x00, 0x00, 0x08, 0xff, 0xff, 0xff, 0x25, 0x00, 0x00, 0x00,
  0x73, 0x65, 0x71, 0x75, 0x65, 0x6e, 0x74, 0x69, 0x61, 0x6c, 0x2f, 0x6d,
  0x61, 0x78, 0x5f, 0x70, 0x6f, 0x6f, 0x6c, 0x69, 0x6e, 0x67, 0x31, 0x64,
  0x5f, 0x31, 0x2f, 0x45, 0x78, 0x70, 0x61, 0x6e, 0x64, 0x44, 0x69, 0x6d,
  0x73, 0x00, 0x00, 0x00, 0x01, 0x00, 0x00, 0x00, 0x04, 0x00, 0x00, 0x00,
  0x06, 0xff, 0xff, 0xff, 0x00, 0x00, 0x00, 0x01, 0x14, 0x00, 0x00, 0x00,
  0x14, 0x00, 0x00, 0x00, 0x04, 0x00, 0x00, 0x00, 0x00, 0x00, 0x00, 0x02,
  0x34, 0x00, 0x00, 0x00, 0x5c, 0xff, 0xff, 0xff, 0x25, 0x00, 0x00, 0x00,
  0x73, 0x65, 0x71, 0x75, 0x65, 0x6e, 0x74, 0x69, 0x61, 0x6c, 0x2f, 0x63,
  0x6f, 0x6e, 0x76, 0x31, 0x64, 0x5f, 0x31, 0x2f, 0x43, 0x6f, 0x6e, 0x76,
  0x31, 0x44, 0x2f, 0x45, 0x78, 0x70, 0x61, 0x6e, 0x64, 0x44, 0x69, 0x6d,
  0x73, 0x00, 0x00, 0x00, 0x01, 0x00, 0x00, 0x00, 0x04, 0x00, 0x00, 0x00,
  0x5a, 0xff, 0xff, 0xff, 0x00, 0x00, 0x00, 0x01, 0x14, 0x00, 0x00, 0x00,
  0x14, 0x00, 0x00, 0x00, 0x03, 0x00, 0x00, 0x00, 0x00, 0x00, 0x00, 0x02,
  0x30, 0x00, 0x00, 0x00, 0xb0, 0xff, 0xff, 0xff, 0x23, 0x00, 0x00, 0x00,
  0x73, 0x65, 0x71, 0x75, 0x65, 0x6e, 0x74, 0x69, 0x61, 0x6c, 0x2f, 0x6d,
  0x61, 0x78, 0x5f, 0x70, 0x6f, 0x6f, 0x6c, 0x69, 0x6e, 0x67, 0x31, 0x64,
  0x2f, 0x45, 0x78, 0x70, 0x61, 0x6e, 0x64, 0x44, 0x69, 0x6d, 0x73, 0x00,
  0x01, 0x00, 0x00, 0x00, 0x04, 0x00, 0x00, 0x00, 0xaa, 0xff, 0xff, 0xff,
  0x00, 0x00, 0x00, 0x01, 0x18, 0x00, 0x00, 0x00, 0x18, 0x00, 0x00, 0x00,
  0x02, 0x00, 0x00, 0x00, 0x00, 0x00, 0x00, 0x02, 0x34, 0x00, 0x00, 0x00,
  0x04, 0x00, 0x04, 0x00, 0x04, 0x00, 0x00, 0x00, 0x23, 0x00, 0x00, 0x00,
  0x73, 0x65, 0x71, 0x75, 0x65, 0x6e, 0x74, 0x69, 0x61, 0x6c, 0x2f, 0x63,
  0x6f, 0x6e, 0x76, 0x31, 0x64, 0x2f, 0x43, 0x6f, 0x6e, 0x76, 0x31, 0x44,
  0x2f, 0x45, 0x78, 0x70, 0x61, 0x6e, 0x64, 0x44, 0x69, 0x6d, 0x73, 0x00,
  0x01, 0x00, 0x00, 0x00, 0x04, 0x00, 0x00, 0x00, 0x00, 0x00, 0x16, 0x00,
  0x1c, 0x00, 0x18, 0x00, 0x17, 0x00, 0x10, 0x00, 0x0c, 0x00, 0x08, 0x00,
  0x00, 0x00, 0x00, 0x00, 0x00, 0x00, 0x07, 0x00, 0x16, 0x00, 0x00, 0x00,
  0x00, 0x00, 0x00, 0x01, 0x20, 0x00, 0x00, 0x00, 0x3c, 0x00, 0x00, 0x00,
  0x01, 0x00, 0x00, 0x00, 0x00, 0x00, 0x00, 0x09, 0x48, 0x00, 0x00, 0x00,
  0x0c, 0x00, 0x0c, 0x00, 0x00, 0x00, 0x00, 0x00, 0x08, 0x00, 0x04, 0x00,
  0x0c, 0x00, 0x00, 0x00, 0x08, 0x00, 0x00, 0x00, 0x10, 0x00, 0x00, 0x00,
  0x01, 0x00, 0x00, 0x00, 0x80, 0xff, 0xff, 0xff, 0xff, 0xff, 0xff, 0xff,
  0x01, 0x00, 0x00, 0x00, 0xc0, 0xbf, 0x3f, 0x3b, 0x13, 0x00, 0x00, 0x00,
  0x73, 0x65, 0x72, 0x76, 0x69, 0x6e, 0x67, 0x5f, 0x64, 0x65, 0x66, 0x61,
  0x75, 0x6c, 0x74, 0x5f, 0x78, 0x3a, 0x30, 0x00, 0x02, 0x00, 0x00, 0x00,
  0x01, 0x00, 0x00, 0x00, 0x48, 0x17, 0x00, 0x00, 0x05, 0x00, 0x00, 0x00,
  0x6c, 0x00, 0x00, 0x00, 0x4c, 0x00, 0x00, 0x00, 0x2c, 0x00, 0x00, 0x00,
  0x18, 0x00, 0x00, 0x00, 0x04, 0x00, 0x00, 0x00, 0xd0, 0xff, 0xff, 0xff,
  0x19, 0x00, 0x00, 0x00, 0x02, 0x00, 0x00, 0x00, 0x00, 0x00, 0x00, 0x19,
  0xe0, 0xff, 0xff, 0xff, 0x09, 0x00, 0x00, 0x00, 0x04, 0x00, 0x00, 0x00,
  0x00, 0x00, 0x00, 0x09, 0xf0, 0xff, 0xff, 0xff, 0x11, 0x00, 0x00, 0x00,
  0x02, 0x00, 0x00, 0x00, 0x00, 0x00, 0x00, 0x11, 0x0c, 0x00, 0x10, 0x00,
  0x0f, 0x00, 0x00, 0x00, 0x08, 0x00, 0x04, 0x00, 0x0c, 0x00, 0x00, 0x00,
  0x03, 0x00, 0x00, 0x00, 0x03, 0x00, 0x00, 0x00, 0x00, 0x00, 0x00, 0x03,
  0x0c, 0x00, 0x0c, 0x00, 0x0b, 0x00, 0x00, 0x00, 0x00, 0x00, 0x04, 0x00,
  0x0c, 0x00, 0x00, 0x00, 0x16, 0x00, 0x00, 0x00, 0x00, 0x00, 0x00, 0x16
};
unsigned int tflite_learn_770185_4_len = 7680;
#endif // _EI_CLASSIFIER_TFLITE_LEARN_770185_4_H_
